{
  "version": "1.0",
  "truncation": null,
  "padding": null,
  "added_tokens": [
    {
      "id": 0,
      "special": true,
      "content": "<pad>",
      "single_word": false,
      "lstrip": false,
      "rstrip": false,
      "normalized": false
    },
    {
      "id": 1,
      "special": true,
      "content": "<s>",
      "single_word": false,
      "lstrip": false,
      "rstrip": false,
      "normalized": false
    },
    {
      "id": 2,
      "special": true,
      "content": "</s>",
      "single_word": false,
      "lstrip": false,
      "rstrip": false,
      "normalized": false
    },
    {
      "id": 3,
      "special": true,
      "content": "<unk>",
      "single_word": false,
      "lstrip": false,
      "rstrip": false,
      "normalized": false
    },
    {
      "id": 4,
      "special": true,
      "content": "<mask>",
      "single_word": false,
      "lstrip": false,
      "rstrip": false,
      "normalized": false
    }
  ],
  "normalizer": null,
  "pre_tokenizer": {
    "type": "ByteLevel",
    "add_prefix_space": false,
    "trim_offsets": true
  },
  "post_processor": {
    "type": "ByteLevel",
    "add_prefix_space": true,
    "trim_offsets": false
  },
  "decoder": {
    "type": "ByteLevel",
    "add_prefix_space": true,
    "trim_offsets": true
  },
  "model": {
    "type": "BPE",
    "dropout": null,
    "unk_token": null,
    "continuing_subword_prefix": null,
    "end_of_word_suffix": null,
    "fuse_unk": false,
    "vocab": {
      "<pad>": 0,
      "<s>": 1,
      "</s>": 2,
      "<unk>": 3,
      "<mask>": 4,
      "!": 5,
      "\"": 6,
      "#": 7,
      "$": 8,
      "%": 9,
      "&": 10,
      "'": 11,
      "(": 12,
      ")": 13,
      "*": 14,
      "+": 15,
      ",": 16,
      "-": 17,
      ".": 18,
      "/": 19,
      "0": 20,
      "1": 21,
      "2": 22,
      "3": 23,
      "4": 24,
      "5": 25,
      "6": 26,
      "7": 27,
      "8": 28,
      "9": 29,
      ":": 30,
      ";": 31,
      "<": 32,
      "=": 33,
      ">": 34,
      "?": 35,
      "@": 36,
      "A": 37,
      "B": 38,
      "C": 39,
      "D": 40,
      "E": 41,
      "F": 42,
      "G": 43,
      "H": 44,
      "I": 45,
      "J": 46,
      "K": 47,
      "L": 48,
      "M": 49,
      "N": 50,
      "O": 51,
      "P": 52,
      "Q": 53,
      "R": 54,
      "S": 55,
      "T": 56,
      "U": 57,
      "V": 58,
      "W": 59,
      "X": 60,
      "Y": 61,
      "Z": 62,
      "[": 63,
      "\\": 64,
      "]": 65,
      "^": 66,
      "_": 67,
      "`": 68,
      "a": 69,
      "b": 70,
      "c": 71,
      "d": 72,
      "e": 73,
      "f": 74,
      "g": 75,
      "h": 76,
      "i": 77,
      "j": 78,
      "k": 79,
      "l": 80,
      "m": 81,
      "n": 82,
      "o": 83,
      "p": 84,
      "q": 85,
      "r": 86,
      "s": 87,
      "t": 88,
      "u": 89,
      "v": 90,
      "w": 91,
      "x": 92,
      "y": 93,
      "z": 94,
      "{": 95,
      "|": 96,
      "}": 97,
      "~": 98,
      "¡": 99,
      "¢": 100,
      "£": 101,
      "¤": 102,
      "¥": 103,
      "¦": 104,
      "§": 105,
      "¨": 106,
      "©": 107,
      "ª": 108,
      "«": 109,
      "¬": 110,
      "®": 111,
      "¯": 112,
      "°": 113,
      "±": 114,
      "²": 115,
      "³": 116,
      "´": 117,
      "µ": 118,
      "¶": 119,
      "·": 120,
      "¸": 121,
      "¹": 122,
      "º": 123,
      "»": 124,
      "¼": 125,
      "½": 126,
      "¾": 127,
      "¿": 128,
      "Â": 129,
      "Ã": 130,
      "Ä": 131,
      "Å": 132,
      "Æ": 133,
      "Ç": 134,
      "È": 135,
      "É": 136,
      "Ê": 137,
      "Ë": 138,
      "Ì": 139,
      "Í": 140,
      "Î": 141,
      "Ï": 142,
      "Ð": 143,
      "Ñ": 144,
      "Ò": 145,
      "Ó": 146,
      "Ô": 147,
      "Õ": 148,
      "Ö": 149,
      "×": 150,
      "Ø": 151,
      "Ù": 152,
      "Ú": 153,
      "Û": 154,
      "Ü": 155,
      "Ý": 156,
      "Þ": 157,
      "ß": 158,
      "à": 159,
      "á": 160,
      "â": 161,
      "ã": 162,
      "ä": 163,
      "å": 164,
      "æ": 165,
      "ç": 166,
      "è": 167,
      "é": 168,
      "ê": 169,
      "ë": 170,
      "ì": 171,
      "í": 172,
      "î": 173,
      "ï": 174,
      "ð": 175,
      "ā": 176,
      "ă": 177,
      "Ą": 178,
      "Ĉ": 179,
      "ĉ": 180,
      "Ċ": 181,
      "Č": 182,
      "č": 183,
      "Đ": 184,
      "ė": 185,
      "ě": 186,
      "ğ": 187,
      "Ġ": 188,
      "ġ": 189,
      "Ģ": 190,
      "ģ": 191,
      "Ĥ": 192,
      "ĥ": 193,
      "Ħ": 194,
      "ħ": 195,
      "Ĩ": 196,
      "ĩ": 197,
      "Ī": 198,
      "ī": 199,
      "Ĭ": 200,
      "ĭ": 201,
      "Į": 202,
      "į": 203,
      "İ": 204,
      "ı": 205,
      "Ĳ": 206,
      "ĳ": 207,
      "Ĵ": 208,
      "ĵ": 209,
      "Ķ": 210,
      "ķ": 211,
      "ĸ": 212,
      "Ĺ": 213,
      "ĺ": 214,
      "Ļ": 215,
      "ļ": 216,
      "Ľ": 217,
      "ľ": 218,
      "Ŀ": 219,
      "ŀ": 220,
      "Ł": 221,
      "ł": 222,
      "Ń": 223,
      "er": 224,
      "on": 225,
      "re": 226,
      "in": 227,
      "at": 228,
      "th": 229,
      "se": 230,
      "st": 231,
      "en": 232,
      "or": 233,
      "al": 234,
      "ion": 235,
      "le": 236,
      "ar": 237,
      "is": 238,
      "et": 239,
      "ur": 240,
      "an": 241,
      "de": 242,
      "ct": 243,
      "if": 244,
      "es": 245,
      "am": 246,
      "ro": 247,
      "it": 248,
      "ce": 249,
      "ing": 250,
      "->": 251,
      "ent": 252,
      "un": 253,
      "ĠĠ": 254,
      "ret": 255,
      "urn": 256,
      "ch": 257,
      "ue": 258,
      "the": 259,
      "return": 260,
      "ut": 261,
      "get": 262,
      "tr": 263,
      "ed": 264,
      "co": 265,
      "as": 266,
      "fi": 267,
      "ul": 268,
      "this": 269,
      "li": 270,
      "lo": 271,
      "to": 272,
      "el": 273,
      "ex": 274,
      "pt": 275,
      "ad": 276,
      "ame": 277,
      "ate": 278,
      "id": 279,
      "il": 280,
      "con": 281,
      "ag": 282,
      "pe": 283,
      "for": 284,
      "ction": 285,
      "res": 286,
      "//": 287,
      "==": 288,
      "ne": 289,
      "ck": 290,
      "val": 291,
      "ra": 292,
      "sel": 293,
      "im": 294,
      "self": 295,
      "ab": 296,
      "no": 297,
      "em": 298,
      "ation": 299,
      "err": 300,
      "ub": 301,
      "int": 302,
      "ption": 303,
      "ap": 304,
      "um": 305,
      "fun": 306,
      "set": 307,
      "and": 308,
      "In": 309,
      "str": 310,
      "ĠĠĠĠ": 311,
      "ype": 312,
      "new": 313,
      "ata": 314,
      "ser": 315,
      "--": 316,
      "ey": 317,
      "name": 318,
      "par": 319,
      "ic": 320,
      "ext": 321,
      "pro": 322,
      "of": 323,
      "ult": 324,
      "age": 325,
      "Con": 326,
      "ol": 327,
      "up": 328,
      "lic": 329,
      "ect": 330,
      "ers": 331,
      "able": 332,
      "ull": 333,
      "Re": 334,
      "end": 335,
      "Ġthe": 336,
      "od": 337,
      "ath": 338,
      "ist": 339,
      "all": 340,
      "Ex": 341,
      "function": 342,
      "ass": 343,
      "def": 344,
      "ess": 345,
      "iv": 346,
      "ter": 347,
      "ig": 348,
      "po": 349,
      "Str": 350,
      "pl": 351,
      "ment": 352,
      "ray": 353,
      "que": 354,
      "per": 355,
      "value": 356,
      "ase": 357,
      "null": 358,
      "cont": 359,
      "put": 360,
      "ode": 361,
      "bj": 362,
      "pub": 363,
      "key": 364,
      "cl": 365,
      "String": 366,
      "not": 367,
      "data": 368,
      "Name": 369,
      "om": 370,
      "public": 371,
      "iz": 372,
      "file": 373,
      "fo": 374,
      "quest": 375,
      "out": 376,
      "com": 377,
      "vi": 378,
      "pa": 379,
      "nt": 380,
      "be": 381,
      "sh": 382,
      "fig": 383,
      "qu": 384,
      "else": 385,
      "ver": 386,
      "ception": 387,
      "ime": 388,
      "mat": 389,
      "St": 390,
      "one": 391,
      "Ġw": 392,
      "he": 393,
      "array": 394,
      "::": 395,
      "string": 396,
      "len": 397,
      "our": 398,
      "te": 399,
      "ith": 400,
      "add": 401,
      "type": 402,
      "eld": 403,
      "bject": 404,
      "do": 405,
      "row": 406,
      "path": 407,
      "ach": 408,
      "arg": 409,
      "pon": 410,
      "ort": 411,
      "param": 412,
      "Exception": 413,
      "der": 414,
      "ri": 415,
      "ile": 416,
      "ve": 417,
      "app": 418,
      "us": 419,
      "ma": 420,
      "Ġto": 421,
      "nil": 422,
      "=>": 423,
      "Val": 424,
      "error": 425,
      "rr": 426,
      ":=": 427,
      "Ġa": 428,
      "ack": 429,
      "Type": 430,
      "fin": 431,
      "rom": 432,
      "Ġs": 433,
      "di": 434,
      "!=": 435,
      "var": 436,
      "Err": 437,
      "bu": 438,
      "ance": 439,
      "De": 440,
      "ang": 441,
      "ht": 442,
      "Id": 443,
      "col": 444,
      "unt": 445,
      "alse": 446,
      "log": 447,
      "ot": 448,
      "----": 449,
      "rent": 450,
      "pr": 451,
      "result": 452,
      "art": 453,
      "fa": 454,
      "ource": 455,
      "Res": 456,
      "ain": 457,
      "ize": 458,
      "ib": 459,
      "lin": 460,
      "code": 461,
      "Pro": 462,
      "cur": 463,
      "eth": 464,
      "pre": 465,
      "list": 466,
      "dex": 467,
      "ity": 468,
      "Ġin": 469,
      "stat": 470,
      "cre": 471,
      "Error": 472,
      "Lo": 473,
      "List": 474,
      "ponse": 475,
      "ethod": 476,
      "request": 477,
      "ptions": 478,
      "Cont": 479,
      "bo": 480,
      "ay": 481,
      "Set": 482,
      "func": 483,
      "config": 484,
      "ĠĠĠĠĠĠĠĠ": 485,
      "ok": 486,
      "by": 487,
      "ord": 488,
      "Ġm": 489,
      "sion": 490,
      "En": 491,
      "from": 492,
      "field": 493,
      "class": 494,
      "rit": 495,
      "lement": 496,
      "None": 497,
      "stance": 498,
      "Ar": 499,
      "ure": 500,
      "ip": 501,
      "&&": 502,
      "throw": 503,
      "port": 504,
      "ition": 505,
      "cess": 506,
      "**": 507,
      "essage": 508,
      "user": 509,
      "vent": 510,
      "cal": 511,
      "ĊĊ": 512,
      "Value": 513,
      "false": 514,
      "op": 515,
      "use": 516,
      "ans": 517,
      "fer": 518,
      "act": 519,
      "ew": 520,
      "true": 521,
      "args": 522,
      "case": 523,
      "ory": 524,
      "vice": 525,
      "Ġis": 526,
      "Par": 527,
      "und": 528,
      "ery": 529,
      "read": 530,
      "ator": 531,
      "atch": 532,
      "ild": 533,
      "ER": 534,
      "ust": 535,
      "date": 536,
      "ies": 537,
      "ule": 538,
      "valid": 539,
      "ute": 540,
      "Cl": 541,
      "ty": 542,
      "node": 543,
      "ument": 544,
      "try": 545,
      "Key": 546,
      "form": 547,
      "File": 548,
      "roup": 549,
      "IN": 550,
      "mo": 551,
      "object": 552,
      "ID": 553,
      "gth": 554,
      "time": 555,
      "options": 556,
      "Tr": 557,
      "tem": 558,
      "ial": 559,
      "ON": 560,
      "with": 561,
      "cri": 562,
      "has": 563,
      "Com": 564,
      "pos": 565,
      "call": 566,
      "lient": 567,
      "trib": 568,
      "Se": 569,
      "Ġ\"": 570,
      "Ġ'": 571,
      "Data": 572,
      "Get": 573,
      "format": 574,
      "lock": 575,
      "Object": 576,
      "Ser": 577,
      "sub": 578,
      "item": 579,
      "odel": 580,
      "ll": 581,
      "'s": 582,
      "Ġbe": 583,
      "red": 584,
      "Request": 585,
      "instance": 586,
      "__": 587,
      "ated": 588,
      "..": 589,
      "Ad": 590,
      "ak": 591,
      "ger": 592,
      "Ġ*": 593,
      "Ch": 594,
      "Path": 595,
      "Ġre": 596,
      "method": 597,
      "ive": 598,
      "wh": 599,
      "00": 600,
      "ifi": 601,
      "append": 602,
      "num": 603,
      "back": 604,
      "pec": 605,
      "ener": 606,
      "ly": 607,
      "that": 608,
      "index": 609,
      "create": 610,
      "low": 611,
      "final": 612,
      "ast": 613,
      "load": 614,
      "ange": 615,
      "Ġof": 616,
      "Class": 617,
      "ues": 618,
      "start": 619,
      "response": 620,
      "ault": 621,
      "ms": 622,
      "length": 623,
      "count": 624,
      "ersion": 625,
      "To": 626,
      "Config": 627,
      "url": 628,
      "ber": 629,
      "ac": 630,
      "'t": 631,
      "For": 632,
      "Bu": 633,
      "ir": 634,
      "Po": 635,
      "min": 636,
      "Ġc": 637,
      "fore": 638,
      "ign": 639,
      "default": 640,
      "static": 641,
      "||": 642,
      "tp": 643,
      "ail": 644,
      "current": 645,
      "Param": 646,
      "inter": 647,
      "ry": 648,
      "===": 649,
      "ph": 650,
      "Ġfor": 651,
      "ple": 652,
      "ader": 653,
      "umn": 654,
      "ames": 655,
      "ill": 656,
      "Th": 657,
      "ses": 658,
      "match": 659,
      "che": 660,
      "context": 661,
      "Ġ(": 662,
      "ind": 663,
      "ces": 664,
      "line": 665,
      "Ġnot": 666,
      "Node": 667,
      "check": 668,
      "Col": 669,
      "ace": 670,
      "lect": 671,
      "params": 672,
      "ow": 673,
      "query": 674,
      "Un": 675,
      "ise": 676,
      "ole": 677,
      "vo": 678,
      "Ret": 679,
      "At": 680,
      "AT": 681,
      "ant": 682,
      "RE": 683,
      "ded": 684,
      "ight": 685,
      "--------": 686,
      "ork": 687,
      "ec": 688,
      "Add": 689,
      "input": 690,
      "writ": 691,
      "rect": 692,
      "uth": 693,
      "sy": 694,
      "content": 695,
      "ml": 696,
      "ream": 697,
      "av": 698,
      "By": 699,
      "ther": 700,
      "Map": 701,
      "print": 702,
      "ST": 703,
      "ield": 704,
      "ache": 705,
      "event": 706,
      "ary": 707,
      "son": 708,
      "ence": 709,
      "Ġh": 710,
      "size": 711,
      "Ġand": 712,
      "comm": 713,
      "ine": 714,
      "Co": 715,
      "ide": 716,
      "output": 717,
      "ress": 718,
      "map": 719,
      "Ġd": 720,
      "ates": 721,
      "state": 722,
      "ask": 723,
      "pty": 724,
      "perty": 725,
      "arget": 726,
      "Time": 727,
      "base": 728,
      "oc": 729,
      "Array": 730,
      "exist": 731,
      "ave": 732,
      "values": 733,
      "table": 734,
      "iven": 735,
      "max": 736,
      "trans": 737,
      "An": 738,
      "info": 739,
      "group": 740,
      "text": 741,
      "ge": 742,
      "reg": 743,
      "ss": 744,
      "action": 745,
      "ke": 746,
      "If": 747,
      "fix": 748,
      "fil": 749,
      "jo": 750,
      "eter": 751,
      "ax": 752,
      "Return": 753,
      "face": 754,
      "uct": 755,
      "The": 756,
      "ken": 757,
      "andl": 758,
      "given": 759,
      "UR": 760,
      "Context": 761,
      "message": 762,
      "contain": 763,
      "Field": 764,
      "bre": 765,
      "''": 766,
      "Inter": 767,
      "element": 768,
      "void": 769,
      "lection": 770,
      "ug": 771,
      "are": 772,
      "uration": 773,
      "LE": 774,
      "Ġwe": 775,
      "parse": 776,
      "abel": 777,
      "os": 778,
      "point": 779,
      "OR": 780,
      "Ġ{": 781,
      "break": 782,
      "model": 783,
      "tribute": 784,
      "py": 785,
      "Ġif": 786,
      "doc": 787,
      "http": 788,
      "Cre": 789,
      "place": 790,
      "====": 791,
      "parent": 792,
      "spec": 793,
      "ings": 794,
      "version": 795,
      "bug": 796,
      "dir": 797,
      "scri": 798,
      "Response": 799,
      "link": 800,
      "ren": 801,
      "Ġb": 802,
      "token": 803,
      "tag": 804,
      "mod": 805,
      "exp": 806,
      "pace": 807,
      "ject": 808,
      "ME": 809,
      "ep": 810,
      "qui": 811,
      "cord": 812,
      "Info": 813,
      "ost": 814,
      "ong": 815,
      "lete": 816,
      "part": 817,
      "Message": 818,
      "word": 819,
      "Of": 820,
      "Ġit": 821,
      "ard": 822,
      "arch": 823,
      "New": 824,
      "AP": 825,
      "foreach": 826,
      "client": 827,
      "Index": 828,
      "ified": 829,
      "Qu": 830,
      "ations": 831,
      "column": 832,
      "met": 833,
      "anag": 834,
      "json": 835,
      "buf": 836,
      "work": 837,
      "Code": 838,
      "Service": 839,
      "nection": 840,
      "pes": 841,
      "Element": 842,
      "++": 843,
      "we": 844,
      "obj": 845,
      "target": 846,
      "andler": 847,
      "ere": 848,
      "ilder": 849,
      "ĊĠĠĠĠĠĠĠĠ": 850,
      "SE": 851,
      "ivate": 852,
      "AR": 853,
      "fir": 854,
      "update": 855,
      "write": 856,
      "Up": 857,
      "'d": 858,
      "cept": 859,
      "Ap": 860,
      "ific": 861,
      "Im": 862,
      "AL": 863,
      "resource": 864,
      "next": 865,
      "let": 866,
      "range": 867,
      "empty": 868,
      "Arg": 869,
      "Stat": 870,
      "ody": 871,
      "DE": 872,
      "arsh": 873,
      "filter": 874,
      "Log": 875,
      "remo": 876,
      "Ġan": 877,
      "Ġ%": 878,
      "raise": 879,
      "vert": 880,
      "mt": 881,
      "He": 882,
      "names": 883,
      "fset": 884,
      "\\\"": 885,
      "ree": 886,
      "Event": 887,
      "plate": 888,
      "fl": 889,
      "utes": 890,
      "order": 891,
      "ected": 892,
      "****": 893,
      "cket": 894,
      "mit": 895,
      "User": 896,
      "als": 897,
      "uld": 898,
      "can": 899,
      "last": 900,
      "+=": 901,
      "ref": 902,
      "True": 903,
      "Ġon": 904,
      "wn": 905,
      "cond": 906,
      "ccess": 907,
      "State": 908,
      "ĠĠĠ": 909,
      "isset": 910,
      "gr": 911,
      "opt": 912,
      "ages": 913,
      "ponent": 914,
      "sert": 915,
      "vel": 916,
      "olean": 917,
      "Client": 918,
      "chem": 919,
      "Group": 920,
      "kw": 921,
      "Or": 922,
      "This": 923,
      "head": 924,
      "req": 925,
      "eters": 926,
      "prot": 927,
      "sen": 928,
      "first": 929,
      "source": 930,
      "sed": 931,
      "private": 932,
      "Not": 933,
      "Out": 934,
      "tes": 935,
      "Input": 936,
      "char": 937,
      "local": 938,
      "db": 939,
      "process": 940,
      "loc": 941,
      "andle": 942,
      "find": 943,
      "service": 944,
      "anager": 945,
      "catch": 946,
      "Ġthis": 947,
      "LO": 948,
      "False": 949,
      "oken": 950,
      "label": 951,
      "protected": 952,
      "child": 953,
      "()": 954,
      "old": 955,
      "ctx": 956,
      "gener": 957,
      "its": 958,
      "'m": 959,
      "Ġwith": 960,
      "run": 961,
      "dis": 962,
      "direct": 963,
      "With": 964,
      "view": 965,
      "ĉĉ": 966,
      "auth": 967,
      "Sy": 968,
      "ore": 969,
      "fe": 970,
      "Ġp": 971,
      "attr": 972,
      "keys": 973,
      "Token": 974,
      ".'": 975,
      "ash": 976,
      "\\\\": 977,
      "defin": 978,
      "ca": 979,
      "entity": 980,
      "nel": 981,
      "stem": 982,
      "EN": 983,
      "ite": 984,
      "Item": 985,
      "number": 986,
      "np": 987,
      "returns": 988,
      "status": 989,
      "exec": 990,
      "msg": 991,
      "64": 992,
      "image": 993,
      "verr": 994,
      "argument": 995,
      "iter": 996,
      "Pre": 997,
      "idth": 998,
      "kwargs": 999,
      "byte": 1000,
      "AN": 1001,
      "abled": 1002,
      "...": 1003,
      "Des": 1004,
      "sing": 1005,
      "Create": 1006,
      "##": 1007,
      "Result": 1008,
      "logger": 1009,
      "!==": 1010,
      "debug": 1011,
      "Stream": 1012,
      "dict": 1013,
      "command": 1014,
      "cache": 1015,
      "Method": 1016,
      "other": 1017,
      "block": 1018,
      "Che": 1019,
      "ps": 1020,
      "Met": 1021,
      "ension": 1022,
      "iable": 1023,
      "exists": 1024,
      "Writ": 1025,
      "clo": 1026,
      "ron": 1027,
      "Check": 1028,
      "nc": 1029,
      "pert": 1030,
      "Ut": 1031,
      "ference": 1032,
      "oper": 1033,
      "Returns": 1034,
      "replace": 1035,
      "Query": 1036,
      "Table": 1037,
      "verride": 1038,
      "Resource": 1039,
      "will": 1040,
      "\"\"": 1041,
      "ner": 1042,
      "tributes": 1043,
      "entry": 1044,
      "roll": 1045,
      "init": 1046,
      "TI": 1047,
      "md": 1048,
      "perties": 1049,
      "Trans": 1050,
      "struct": 1051,
      "dat": 1052,
      "tern": 1053,
      "loat": 1054,
      "adata": 1055,
      "clu": 1056,
      "ify": 1057,
      "sum": 1058,
      "page": 1059,
      "Bo": 1060,
      "root": 1061,
      "rap": 1062,
      "SS": 1063,
      "Util": 1064,
      "ob": 1065,
      "join": 1066,
      "Size": 1067,
      "'/": 1068,
      "arshall": 1069,
      "callback": 1070,
      "make": 1071,
      "files": 1072,
      "Ġor": 1073,
      "pect": 1074,
      "api": 1075,
      "ert": 1076,
      "property": 1077,
      "session": 1078,
      "comp": 1079,
      "Num": 1080,
      "API": 1081,
      "plit": 1082,
      "10": 1083,
      "Ġthat": 1084,
      "Builder": 1085,
      "Sh": 1086,
      "Tra": 1087,
      "Valid": 1088,
      "Date": 1089,
      "select": 1090,
      "ustom": 1091,
      "build": 1092,
      "Ġwh": 1093,
      "Ġ*/": 1094,
      "Content": 1095,
      "ould": 1096,
      "boolean": 1097,
      "fields": 1098,
      "Status": 1099,
      "throws": 1100,
      "We": 1101,
      "server": 1102,
      "Ġde": 1103,
      "From": 1104,
      "enc": 1105,
      "Ġ=": 1106,
      "stream": 1107,
      "est": 1108,
      "net": 1109,
      "URL": 1110,
      "rc": 1111,
      "errors": 1112,
      "TE": 1113,
      "ql": 1114,
      "raw": 1115,
      "ush": 1116,
      "sup": 1117,
      "ample": 1118,
      "ression": 1119,
      "go": 1120,
      "cle": 1121,
      "yle": 1122,
      "used": 1123,
      "'re": 1124,
      "Call": 1125,
      "Options": 1126,
      "rl": 1127,
      "nal": 1128,
      "ature": 1129,
      "arn": 1130,
      "headers": 1131,
      "rel": 1132,
      "rule": 1133,
      "ft": 1134,
      "host": 1135,
      "pass": 1136,
      "Sub": 1137,
      "const": 1138,
      "header": 1139,
      "annel": 1140,
      "ized": 1141,
      "uble": 1142,
      "itle": 1143,
      "mis": 1144,
      "ally": 1145,
      "Ġfrom": 1146,
      "Reg": 1147,
      "pend": 1148,
      "Model": 1149,
      "chema": 1150,
      "lay": 1151,
      "sent": 1152,
      "Fil": 1153,
      "ister": 1154,
      "ifier": 1155,
      "proto": 1156,
      ".\"": 1157,
      "tings": 1158,
      "option": 1159,
      "AC": 1160,
      "Invalid": 1161,
      "filen": 1162,
      "Ġdo": 1163,
      "contin": 1164,
      "Property": 1165,
      "Output": 1166,
      "----------------": 1167,
      "Fun": 1168,
      "offset": 1169,
      "remove": 1170,
      "ding": 1171,
      "ix": 1172,
      "aw": 1173,
      "body": 1174,
      "post": 1175,
      "HT": 1176,
      "Tag": 1177,
      "Argument": 1178,
      "items": 1179,
      "No": 1180,
      "ia": 1181,
      "sw": 1182,
      "Manager": 1183,
      "su": 1184,
      "Version": 1185,
      "JS": 1186,
      "instanceof": 1187,
      "pack": 1188,
      "ply": 1189,
      "fmt": 1190,
      "container": 1191,
      "fault": 1192,
      "ateg": 1193,
      "module": 1194,
      "Interface": 1195,
      "mp": 1196,
      "////": 1197,
      "ices": 1198,
      "lob": 1199,
      "Attribute": 1200,
      "sets": 1201,
      "Ġth": 1202,
      "connection": 1203,
      "equ": 1204,
      "lication": 1205,
      "DO": 1206,
      "hash": 1207,
      "parameters": 1208,
      "orm": 1209,
      "vid": 1210,
      "Ġas": 1211,
      "Descri": 1212,
      "Count": 1213,
      "Ġal": 1214,
      "continue": 1215,
      "Le": 1216,
      "limit": 1217,
      "led": 1218,
      "filename": 1219,
      "Len": 1220,
      "except": 1221,
      "Ġf": 1222,
      "ugin": 1223,
      "any": 1224,
      "elif": 1225,
      "ark": 1226,
      "template": 1227,
      "Params": 1228,
      "found": 1229,
      "ments": 1230,
      "ĠS": 1231,
      "Ġ@": 1232,
      "Instance": 1233,
      "TY": 1234,
      "Text": 1235,
      "html": 1236,
      "Ġt": 1237,
      "attern": 1238,
      "ution": 1239,
      "Override": 1240,
      "Ġno": 1241,
      "plo": 1242,
      "exception": 1243,
      "Ġ$": 1244,
      "RO": 1245,
      "bool": 1246,
      "Update": 1247,
      "Ġare": 1248,
      "CO": 1249,
      "sp": 1250,
      "Column": 1251,
      "io": 1252,
      "ING": 1253,
      "Handler": 1254,
      "Comm": 1255,
      "prefix": 1256,
      "sc": 1257,
      "opts": 1258,
      "Di": 1259,
      "search": 1260,
      "32": 1261,
      "record": 1262,
      "copy": 1263,
      "On": 1264,
      "Pr": 1265,
      "Ġe": 1266,
      "float": 1267,
      "af": 1268,
      "util": 1269,
      "nect": 1270,
      "so": 1271,
      "split": 1272,
      "Ġpro": 1273,
      "FI": 1274,
      "store": 1275,
      "Var": 1276,
      "gra": 1277,
      "Int": 1278,
      "delete": 1279,
      "Exp": 1280,
      "should": 1281,
      "ich": 1282,
      "sign": 1283,
      "vis": 1284,
      "clude": 1285,
      "ors": 1286,
      "Ġ-": 1287,
      "open": 1288,
      "quired": 1289,
      "Url": 1290,
      "Buf": 1291,
      "using": 1292,
      "iled": 1293,
      "Entry": 1294,
      "PE": 1295,
      "attribute": 1296,
      ">>": 1297,
      "ources": 1298,
      "Auth": 1299,
      "buffer": 1300,
      "abase": 1301,
      "Per": 1302,
      "ou": 1303,
      "emo": 1304,
      "Ht": 1305,
      "Format": 1306,
      "level": 1307,
      "play": 1308,
      "send": 1309,
      "Al": 1310,
      "Names": 1311,
      "IO": 1312,
      "Ġset": 1313,
      "========": 1314,
      "printf": 1315,
      "Ġcan": 1316,
      "itch": 1317,
      "Start": 1318,
      "Option": 1319,
      "SI": 1320,
      "long": 1321,
      "while": 1322,
      "Dis": 1323,
      "top": 1324,
      "cope": 1325,
      "JSON": 1326,
      "types": 1327,
      "',": 1328,
      "lang": 1329,
      "interface": 1330,
      "All": 1331,
      "specified": 1332,
      "Ġne": 1333,
      "leg": 1334,
      "sort": 1335,
      "resol": 1336,
      "TO": 1337,
      "position": 1338,
      "older": 1339,
      "ual": 1340,
      "ish": 1341,
      "Ġfile": 1342,
      "Mod": 1343,
      "formation": 1344,
      "rame": 1345,
      "Cache": 1346,
      "GE": 1347,
      "br": 1348,
      "handle": 1349,
      "me": 1350,
      "sha": 1351,
      "ML": 1352,
      "ink": 1353,
      "Default": 1354,
      "parameter": 1355,
      "vider": 1356,
      "variable": 1357,
      "12": 1358,
      "UL": 1359,
      "Gener": 1360,
      "attributes": 1361,
      "Doc": 1362,
      "Const": 1363,
      "ric": 1364,
      "Fact": 1365,
      "DB": 1366,
      "mer": 1367,
      "Enabled": 1368,
      "Clo": 1369,
      "Read": 1370,
      "non": 1371,
      "igin": 1372,
      "og": 1373,
      "bytes": 1374,
      "Vi": 1375,
      "ĊĠĠĠĠ": 1376,
      "width": 1377,
      "Ent": 1378,
      ">=": 1379,
      "cs": 1380,
      "task": 1381,
      "extr": 1382,
      "ible": 1383,
      "mission": 1384,
      "mb": 1385,
      "mem": 1386,
      "}\"": 1387,
      "address": 1388,
      "App": 1389,
      "ud": 1390,
      "Filter": 1391,
      "omain": 1392,
      "ative": 1393,
      "orage": 1394,
      "dest": 1395,
      "Parameter": 1396,
      "Line": 1397,
      "As": 1398,
      "Collection": 1399,
      "Be": 1400,
      "roller": 1401,
      "results": 1402,
      "custom": 1403,
      "Block": 1404,
      "sql": 1405,
      "tc": 1406,
      "End": 1407,
      "inst": 1408,
      "Pl": 1409,
      "job": 1410,
      "Remo": 1411,
      "ait": 1412,
      "ready": 1413,
      "xml": 1414,
      "ff": 1415,
      "Page": 1416,
      "document": 1417,
      "isinstance": 1418,
      "defined": 1419,
      "TP": 1420,
      "LA": 1421,
      "bin": 1422,
      "Dir": 1423,
      "Hash": 1424,
      "NO": 1425,
      "Number": 1426,
      "=\"": 1427,
      "cor": 1428,
      "unk": 1429,
      "Buffer": 1430,
      "configuration": 1431,
      "Pos": 1432,
      "amp": 1433,
      "View": 1434,
      "Contain": 1435,
      "core": 1436,
      "Configuration": 1437,
      "color": 1438,
      ".=": 1439,
      "licy": 1440,
      "untime": 1441,
      "equals": 1442,
      "descri": 1443,
      "Tem": 1444,
      "Do": 1445,
      "ved": 1446,
      "etch": 1447,
      "Defin": 1448,
      "cmd": 1449,
      "close": 1450,
      "cale": 1451,
      "test": 1452,
      "Source": 1453,
      "Ġse": 1454,
      "Action": 1455,
      "entifier": 1456,
      "Ġst": 1457,
      "operation": 1458,
      "ization": 1459,
      "ession": 1460,
      "elper": 1461,
      "16": 1462,
      "Ġhave": 1463,
      "component": 1464,
      "xy": 1465,
      "ĠIf": 1466,
      "<=": 1467,
      "over": 1468,
      "fs": 1469,
      "Exec": 1470,
      "Ġtype": 1471,
      "Ġvalue": 1472,
      "posit": 1473,
      "switch": 1474,
      "ound": 1475,
      "encode": 1476,
      "ava": 1477,
      "Header": 1478,
      "********": 1479,
      "Server": 1480,
      "Entity": 1481,
      "ypes": 1482,
      "Pa": 1483,
      "plugin": 1484,
      "convert": 1485,
      "Image": 1486,
      "TH": 1487,
      "ous": 1488,
      "etail": 1489,
      "AME": 1490,
      "src": 1491,
      "Pack": 1492,
      "uri": 1493,
      "double": 1494,
      "ification": 1495,
      "full": 1496,
      "pay": 1497,
      "DI": 1498,
      "Factory": 1499,
      "ids": 1500,
      "Delete": 1501,
      "istr": 1502,
      "channel": 1503,
      "import": 1504,
      "idx": 1505,
      "Connection": 1506,
      "UN": 1507,
      "IP": 1508,
      "norm": 1509,
      "ie": 1510,
      "att": 1511,
      "Is": 1512,
      "CE": 1513,
      "serial": 1514,
      "20": 1515,
      "ens": 1516,
      "ick": 1517,
      "flag": 1518,
      "into": 1519,
      "Access": 1520,
      "Oper": 1521,
      "resp": 1522,
      "Ġ)": 1523,
      "Ġmust": 1524,
      "Ġdata": 1525,
      "Session": 1526,
      "pop": 1527,
      "Component": 1528,
      "</": 1529,
      "dow": 1530,
      "Base": 1531,
      "parser": 1532,
      "env": 1533,
      "arguments": 1534,
      "ĠF": 1535,
      "Child": 1536,
      "Rule": 1537,
      "serv": 1538,
      "collection": 1539,
      "Ġall": 1540,
      "pare": 1541,
      "mode": 1542,
      "role": 1543,
      "location": 1544,
      "uage": 1545,
      "System": 1546,
      "directory": 1547,
      "indow": 1548,
      "title": 1549,
      "/*": 1550,
      "ĠM": 1551,
      "getName": 1552,
      "expect": 1553,
      "comple": 1554,
      "ical": 1555,
      "protocol": 1556,
      "az": 1557,
      "ell": 1558,
      "where": 1559,
      "validate": 1560,
      "Op": 1561,
      "ns": 1562,
      "tal": 1563,
      "apping": 1564,
      "Iter": 1565,
      "tx": 1566,
      "way": 1567,
      "df": 1568,
      "Null": 1569,
      "handler": 1570,
      "uster": 1571,
      "}'": 1572,
      "Ġby": 1573,
      "present": 1574,
      "ĠC": 1575,
      "toString": 1576,
      "connect": 1577,
      "Command": 1578,
      "Ġun": 1579,
      "temp": 1580,
      "\"\\": 1581,
      "render": 1582,
      "ome": 1583,
      "Spec": 1584,
      "Inte": 1585,
      "uid": 1586,
      "LI": 1587,
      "uto": 1588,
      "only": 1589,
      "left": 1590,
      "tmp": 1591,
      "Ref": 1592,
      "dr": 1593,
      "style": 1594,
      "ants": 1595,
      "push": 1596,
      "iver": 1597,
      "Link": 1598,
      "Length": 1599,
      "route": 1600,
      "namespace": 1601,
      "fact": 1602,
      "height": 1603,
      "box": 1604,
      "register": 1605,
      "down": 1606,
      "properties": 1607,
      "rol": 1608,
      "Ġwill": 1609,
      "when": 1610,
      "Function": 1611,
      "ATE": 1612,
      "Ġso": 1613,
      "ailable": 1614,
      "cons": 1615,
      "LOG": 1616,
      "Http": 1617,
      "essages": 1618,
      "execute": 1619,
      "Task": 1620,
      "TYPE": 1621,
      "Cur": 1622,
      "Em": 1623,
      "project": 1624,
      "ĠP": 1625,
      "And": 1626,
      "/**": 1627,
      "coding": 1628,
      ");": 1629,
      "Char": 1630,
      "main": 1631,
      "HTTP": 1632,
      "timeout": 1633,
      "UT": 1634,
      "Container": 1635,
      "org": 1636,
      "settings": 1637,
      "cent": 1638,
      "Ġcheck": 1639,
      "Ac": 1640,
      "Point": 1641,
      "ting": 1642,
      "matches": 1643,
      "Definition": 1644,
      "notation": 1645,
      "Ġ1": 1646,
      "right": 1647,
      "tree": 1648,
      "CON": 1649,
      "warn": 1650,
      "kip": 1651,
      "Part": 1652,
      "NAME": 1653,
      "resh": 1654,
      "undle": 1655,
      "assert": 1656,
      "ake": 1657,
      "CT": 1658,
      "Match": 1659,
      "nore": 1660,
      "pattern": 1661,
      "Cms": 1662,
      "queue": 1663,
      "Utils": 1664,
      "Fl": 1665,
      "Write": 1666,
      "stack": 1667,
      "AD": 1668,
      "Address": 1669,
      "itor": 1670,
      "change": 1671,
      "cho": 1672,
      "apt": 1673,
      "Run": 1674,
      "Integer": 1675,
      "day": 1676,
      "lobal": 1677,
      "Empty": 1678,
      "prop": 1679,
      "UE": 1680,
      "Values": 1681,
      "merge": 1682,
      "IOException": 1683,
      "lines": 1684,
      "metadata": 1685,
      "allow": 1686,
      "you": 1687,
      "Ġhas": 1688,
      "bind": 1689,
      "Job": 1690,
      "schema": 1691,
      "cls": 1692,
      "Ġname": 1693,
      "chang": 1694,
      "curs": 1695,
      "'\"": 1696,
      "mult": 1697,
      "Row": 1698,
      "25": 1699,
      "Next": 1700,
      "duct": 1701,
      "Marshall": 1702,
      "med": 1703,
      "izer": 1704,
      "mark": 1705,
      "plement": 1706,
      "each": 1707,
      "lib": 1708,
      "CH": 1709,
      "TR": 1710,
      "condition": 1711,
      "contains": 1712,
      "ped": 1713,
      "extension": 1714,
      "Ġget": 1715,
      "password": 1716,
      "pository": 1717,
      "very": 1718,
      "alt": 1719,
      "oci": 1720,
      "stamp": 1721,
      "asses": 1722,
      "meta": 1723,
      "nodes": 1724,
      "getS": 1725,
      "lower": 1726,
      "access": 1727,
      "ArgumentException": 1728,
      "shape": 1729,
      "Ċĉĉ": 1730,
      "ted": 1731,
      "Expression": 1732,
      "ategory": 1733,
      "cation": 1734,
      "lice": 1735,
      "ination": 1736,
      "Types": 1737,
      "there": 1738,
      "Lock": 1739,
      "Ġnew": 1740,
      "idd": 1741,
      "columns": 1742,
      "ility": 1743,
      "tore": 1744,
      "which": 1745,
      "Send": 1746,
      "origin": 1747,
      "Select": 1748,
      "ume": 1749,
      "initial": 1750,
      "Ġreturn": 1751,
      "PO": 1752,
      "bound": 1753,
      "ating": 1754,
      "Ġg": 1755,
      "Form": 1756,
      "gin": 1757,
      "quence": 1758,
      "ported": 1759,
      "Ġuse": 1760,
      "sync": 1761,
      "Ġobject": 1762,
      "ton": 1763,
      "viron": 1764,
      "Rout": 1765,
      "quire": 1766,
      "Record": 1767,
      "100": 1768,
      "cul": 1769,
      "Ġat": 1770,
      "parts": 1771,
      "std": 1772,
      "rix": 1773,
      ">'": 1774,
      "round": 1775,
      "TION": 1776,
      "generate": 1777,
      "fn": 1778,
      "cy": 1779,
      "package": 1780,
      "####": 1781,
      "wrap": 1782,
      "Work": 1783,
      "just": 1784,
      "Bytes": 1785,
      "https": 1786,
      "save": 1787,
      "ures": 1788,
      "Ro": 1789,
      "now": 1790,
      "Process": 1791,
      "MA": 1792,
      "Trace": 1793,
      "Ġlist": 1794,
      "TER": 1795,
      "11": 1796,
      "Label": 1797,
      "Template": 1798,
      "utton": 1799,
      "cf": 1800,
      "trim": 1801,
      "dif": 1802,
      "ts": 1803,
      "Errorf": 1804,
      "Level": 1805,
      "patch": 1806,
      "Ġonly": 1807,
      "tags": 1808,
      "strings": 1809,
      "ities": 1810,
      "system": 1811,
      "ali": 1812,
      "Parse": 1813,
      "transl": 1814,
      "MP": 1815,
      "Ġ`": 1816,
      "Ġ[": 1817,
      "Order": 1818,
      "information": 1819,
      "may": 1820,
      "sl": 1821,
      "elements": 1822,
      "builder": 1823,
      "normal": 1824,
      "Body": 1825,
      "legal": 1826,
      "ters": 1827,
      "show": 1828,
      "Metadata": 1829,
      "application": 1830,
      "sprintf": 1831,
      "existing": 1832,
      "etails": 1833,
      "scope": 1834,
      "SER": 1835,
      "VER": 1836,
      "ends": 1837,
      "ient": 1838,
      "Writer": 1839,
      "Use": 1840,
      "total": 1841,
      "elp": 1842,
      "email": 1843,
      "cat": 1844,
      "Max": 1845,
      "decode": 1846,
      "Rel": 1847,
      "section": 1848,
      "step": 1849,
      "rie": 1850,
      "ached": 1851,
      "KE": 1852,
      "See": 1853,
      "dim": 1854,
      "graph": 1855,
      "bl": 1856,
      "Package": 1857,
      "rand": 1858,
      "abs": 1859,
      "Ġclass": 1860,
      "expected": 1861,
      "ice": 1862,
      "then": 1863,
      "Act": 1864,
      "Document": 1865,
      "php": 1866,
      "Found": 1867,
      "raint": 1868,
      "ential": 1869,
      "conn": 1870,
      "Internal": 1871,
      "java": 1872,
      "ging": 1873,
      "imple": 1874,
      "cli": 1875,
      "ĠThe": 1876,
      "comment": 1877,
      "account": 1878,
      "ched": 1879,
      "ins": 1880,
      "cret": 1881,
      "mon": 1882,
      "'/'": 1883,
      "Ġadd": 1884,
      "second": 1885,
      "\",": 1886,
      "ValueError": 1887,
      "Properties": 1888,
      "Ab": 1889,
      "Marshaller": 1890,
      "Target": 1891,
      "children": 1892,
      "Direct": 1893,
      "Init": 1894,
      "Ġone": 1895,
      "vided": 1896,
      "Tree": 1897,
      "QL": 1898,
      "del": 1899,
      "Load": 1900,
      "include": 1901,
      "pk": 1902,
      "ION": 1903,
      "Convert": 1904,
      "Ext": 1905,
      "Mem": 1906,
      "after": 1907,
      "points": 1908,
      "18": 1909,
      "Il": 1910,
      "FF": 1911,
      "cript": 1912,
      "aws": 1913,
      "uni": 1914,
      "Ġrequest": 1915,
      "flow": 1916,
      "lease": 1917,
      "ho": 1918,
      "Illegal": 1919,
      "'_": 1920,
      "ency": 1921,
      "zer": 1922,
      "AS": 1923,
      "rows": 1924,
      "Ġdoes": 1925,
      "ear": 1926,
      "////////": 1927,
      "fetch": 1928,
      "Provider": 1929,
      "ds": 1930,
      "vious": 1931,
      "pan": 1932,
      "Ġneed": 1933,
      "Mode": 1934,
      "created": 1935,
      "igh": 1936,
      "gment": 1937,
      "uple": 1938,
      "entic": 1939,
      "dist": 1940,
      "definition": 1941,
      "network": 1942,
      "Ġup": 1943,
      "elseif": 1944,
      "nown": 1945,
      "script": 1946,
      "arr": 1947,
      "apply": 1948,
      "Ġerror": 1949,
      "Fields": 1950,
      "ta": 1951,
      "cell": 1952,
      "enu": 1953,
      "Ġco": 1954,
      "FA": 1955,
      "ics": 1956,
      "look": 1957,
      "ĊĠĠĠĠĠĠĠĠĠĠĠĠĠĠĠĠ": 1958,
      "Ġshould": 1959,
      "Back": 1960,
      "active": 1961,
      "frame": 1962,
      "da": 1963,
      "Reference": 1964,
      "bers": 1965,
      "Store": 1966,
      "ln": 1967,
      "conf": 1968,
      "Listener": 1969,
      "Ġany": 1970,
      "Ġspec": 1971,
      "ä¸": 1972,
      "PAR": 1973,
      "ugh": 1974,
      "istry": 1975,
      "nam": 1976,
      "Su": 1977,
      "':": 1978,
      "Host": 1979,
      "Web": 1980,
      "Ġfound": 1981,
      "fail": 1982,
      "Prefix": 1983,
      "Reader": 1984,
      "Debug": 1985,
      "js": 1986,
      "Wh": 1987,
      "URI": 1988,
      "ont": 1989,
      "domain": 1990,
      "lat": 1991,
      "Json": 1992,
      "ek": 1993,
      "database": 1994,
      "Runtime": 1995,
      "Helper": 1996,
      "description": 1997,
      "ning": 1998,
      "ector": 1999,
      "space": 2000,
      "eta": 2001,
      "Local": 2002,
      "stop": 2003,
      "chunk": 2004,
      "Root": 2005,
      "resolve": 2006,
      "Parameters": 2007,
      "'\\": 2008,
      "tom": 2009,
      "Byte": 2010,
      "mbol": 2011,
      "language": 2012,
      "uint": 2013,
      "curity": 2014,
      "lem": 2015,
      "Sup": 2016,
      "payload": 2017,
      "EX": 2018,
      "contents": 2019,
      "Ġ0": 2020,
      "riter": 2021,
      "lish": 2022,
      "Ali": 2023,
      "rt": 2024,
      "assed": 2025,
      "less": 2026,
      "defer": 2027,
      "Ag": 2028,
      "ire": 2029,
      "marshall": 2030,
      "<<": 2031,
      "parator": 2032,
      "Dat": 2033,
      "trace": 2034,
      "Ġkey": 2035,
      "Port": 2036,
      "Offset": 2037,
      "rop": 2038,
      "expression": 2039,
      "Ġwas": 2040,
      "Ass": 2041,
      "Role": 2042,
      "resources": 2043,
      "ĊĠĠĠĠĠĠĠĠĠĠĠĠ": 2044,
      "Ġarray": 2045,
      "VAL": 2046,
      "super": 2047,
      "before": 2048,
      "cause": 2049,
      "controller": 2050,
      "pc": 2051,
      "charact": 2052,
      "implement": 2053,
      "Sign": 2054,
      "idget": 2055,
      "wer": 2056,
      "Lay": 2057,
      "invalid": 2058,
      "Remove": 2059,
      "username": 2060,
      "Callback": 2061,
      "Build": 2062,
      "insert": 2063,
      "'%": 2064,
      "exit": 2065,
      "chain": 2066,
      "'.": 2067,
      "sample": 2068,
      "device": 2069,
      "arshal": 2070,
      "\"/": 2071,
      "AB": 2072,
      "site": 2073,
      "locale": 2074,
      "uture": 2075,
      "reference": 2076,
      "Operation": 2077,
      "Math": 2078,
      "Cal": 2079,
      "://": 2080,
      "Wrap": 2081,
      "gram": 2082,
      "anch": 2083,
      "transform": 2084,
      "axis": 2085,
      "ift": 2086,
      "div": 2087,
      "HE": 2088,
      "sys": 2089,
      "assign": 2090,
      "unter": 2091,
      "vironment": 2092,
      "ptor": 2093,
      "paths": 2094,
      "substr": 2095,
      "ves": 2096,
      "events": 2097,
      "sb": 2098,
      "Ġpre": 2099,
      "transaction": 2100,
      "objects": 2101,
      "ances": 2102,
      "pri": 2103,
      "failed": 2104,
      "my": 2105,
      "Ġstring": 2106,
      "Proto": 2107,
      "Mo": 2108,
      "Long": 2109,
      "ries": 2110,
      "Parent": 2111,
      "aly": 2112,
      "preg": 2113,
      "Handle": 2114,
      "ArrayList": 2115,
      "imit": 2116,
      "mail": 2117,
      "ertific": 2118,
      "nap": 2119,
      "web": 2120,
      "AM": 2121,
      "ank": 2122,
      "Variable": 2123,
      "move": 2124,
      ")\"": 2125,
      "Args": 2126,
      "Min": 2127,
      "TODO": 2128,
      "Ġbut": 2129,
      "#{": 2130,
      "olume": 2131,
      "feature": 2132,
      "Policy": 2133,
      "igger": 2134,
      "bit": 2135,
      "Meta": 2136,
      "fter": 2137,
      "encoding": 2138,
      "batch": 2139,
      "vok": 2140,
      "Keys": 2141,
      "Attributes": 2142,
      "author": 2143,
      "identifier": 2144,
      "alias": 2145,
      "WS": 2146,
      "writer": 2147,
      "Fe": 2148,
      "XML": 2149,
      "Ed": 2150,
      "Width": 2151,
      "Module": 2152,
      "Case": 2153,
      "getValue": 2154,
      "Parser": 2155,
      "asy": 2156,
      "pol": 2157,
      "Net": 2158,
      "01": 2159,
      "Ġ<": 2160,
      "Api": 2161,
      "Open": 2162,
      "tokens": 2163,
      "storage": 2164,
      "associ": 2165,
      "Ġuser": 2166,
      "getMessage": 2167,
      "sg": 2168,
      "Search": 2169,
      "cip": 2170,
      "ĠI": 2171,
      "strip": 2172,
      "Stack": 2173,
      "success": 2174,
      "gress": 2175,
      "rypt": 2176,
      "tw": 2177,
      "24": 2178,
      "Ġalready": 2179,
      "IND": 2180,
      "shot": 2181,
      "her": 2182,
      "sa": 2183,
      "extract": 2184,
      "protocolMarshaller": 2185,
      "Ġfirst": 2186,
      "iple": 2187,
      "like": 2188,
      "own": 2189,
      "ences": 2190,
      "metric": 2191,
      "relation": 2192,
      "iod": 2193,
      "pth": 2194,
      "Pub": 2195,
      "gine": 2196,
      "SQL": 2197,
      "etime": 2198,
      "gen": 2199,
      "etermin": 2200,
      "imary": 2201,
      "Iterator": 2202,
      "Constants": 2203,
      "ĠThis": 2204,
      "loop": 2205,
      "zip": 2206,
      "ged": 2207,
      "ories": 2208,
      "more": 2209,
      "Channel": 2210,
      "methods": 2211,
      "pool": 2212,
      "based": 2213,
      "Que": 2214,
      "ince": 2215,
      "Ġnull": 2216,
      "--------------------------------": 2217,
      "returned": 2218,
      "global": 2219,
      "clear": 2220,
      "ERR": 2221,
      "Position": 2222,
      "ignore": 2223,
      "imum": 2224,
      "auto": 2225,
      "Func": 2226,
      "opy": 2227,
      "ollow": 2228,
      "Range": 2229,
      "layer": 2230,
      "permission": 2231,
      "cr": 2232,
      "Settings": 2233,
      "Schema": 2234,
      "begin": 2235,
      "================": 2236,
      "wise": 2237,
      "internal": 2238,
      "addr": 2239,
      "ersist": 2240,
      "ULT": 2241,
      "Location": 2242,
      "Logger": 2243,
      "track": 2244,
      "ii": 2245,
      "aded": 2246,
      "Timeout": 2247,
      "ely": 2248,
      "'-": 2249,
      "Print": 2250,
      "Head": 2251,
      "'<": 2252,
      "amb": 2253,
      "ĠD": 2254,
      "help": 2255,
      "called": 2256,
      "dec": 2257,
      "Color": 2258,
      "cfg": 2259,
      "Any": 2260,
      "Ġ:": 2261,
      "ĠWe": 2262,
      "single": 2263,
      "OL": 2264,
      "/'": 2265,
      "unit": 2266,
      "Ġmethod": 2267,
      "chron": 2268,
      "15": 2269,
      "Style": 2270,
      "report": 2271,
      "tt": 2272,
      "OP": 2273,
      "NotFound": 2274,
      "starts": 2275,
      "original": 2276,
      "verse": 2277,
      "ions": 2278,
      "inte": 2279,
      "tract": 2280,
      "{}": 2281,
      "Application": 2282,
      "tempt": 2283,
      "utils": 2284,
      "='": 2285,
      "Comp": 2286,
      "Mult": 2287,
      "tim": 2288,
      "cap": 2289,
      "zone": 2290,
      "Ġy": 2291,
      "bucket": 2292,
      "PH": 2293,
      "apter": 2294,
      "enum": 2295,
      "groups": 2296,
      "Ġwhen": 2297,
      "admin": 2298,
      "have": 2299,
      "NT": 2300,
      "required": 2301,
      "pi": 2302,
      "ular": 2303,
      "vm": 2304,
      "comput": 2305,
      "dated": 2306,
      "Ġthere": 2307,
      "endpoint": 2308,
      "ward": 2309,
      "mask": 2310,
      "construct": 2311,
      "depend": 2312,
      "Inst": 2313,
      "lv": 2314,
      "cp": 2315,
      "EL": 2316,
      "Ġ\\": 2317,
      "Can": 2318,
      "Ġdefault": 2319,
      "PRO": 2320,
      "must": 2321,
      "99": 2322,
      "available": 2323,
      "coord": 2324,
      ")'": 2325,
      "Resol": 2326,
      "classes": 2327,
      "also": 2328,
      "riteria": 2329,
      "ker": 2330,
      "ploy": 2331,
      "display": 2332,
      "pair": 2333,
      "okie": 2334,
      "common": 2335,
      "Validate": 2336,
      "Jo": 2337,
      "Ġsup": 2338,
      "random": 2339,
      "window": 2340,
      "thing": 2341,
      "cing": 2342,
      "Ġ2": 2343,
      "className": 2344,
      "ertificate": 2345,
      "bar": 2346,
      "Controller": 2347,
      "manager": 2348,
      "stri": 2349,
      "napshot": 2350,
      "Creates": 2351,
      "Ġfunction": 2352,
      "parsed": 2353,
      "Unit": 2354,
      "policy": 2355,
      "ender": 2356,
      "grid": 2357,
      "Describe": 2358,
      "profile": 2359,
      "GET": 2360,
      "stats": 2361,
      "ĠB": 2362,
      "eded": 2363,
      "Close": 2364,
      "Non": 2365,
      "du": 2366,
      "man": 2367,
      "Serv": 2368,
      "Height": 2369,
      "Copy": 2370,
      "slice": 2371,
      "IT": 2372,
      "alog": 2373,
      "Directory": 2374,
      "provided": 2375,
      "dates": 2376,
      "Route": 2377,
      "matrix": 2378,
      "Storage": 2379,
      "category": 2380,
      "require": 2381,
      "Ġpath": 2382,
      "Async": 2383,
      "proxy": 2384,
      "cluster": 2385,
      "extra": 2386,
      "getId": 2387,
      "ffix": 2388,
      "force": 2389,
      "labels": 2390,
      "flags": 2391,
      "nchron": 2392,
      "Boolean": 2393,
      "Pool": 2394,
      "Post": 2395,
      "Ġl": 2396,
      "rough": 2397,
      "{$": 2398,
      "fr": 2399,
      "iterator": 2400,
      "ux": 2401,
      "cb": 2402,
      "stra": 2403,
      "Current": 2404,
      "Files": 2405,
      "Ġcurrent": 2406,
      "represent": 2407,
      "weight": 2408,
      "irst": 2409,
      "Ġvalid": 2410,
      "Ġthen": 2411,
      "Obj": 2412,
      "ability": 2413,
      "Description": 2414,
      "raph": 2415,
      "Account": 2416,
      "Lang": 2417,
      "KEY": 2418,
      "ping": 2419,
      "ĠW": 2420,
      "clean": 2421,
      "itional": 2422,
      "ĠN": 2423,
      "Ġdis": 2424,
      "vide": 2425,
      "FAULT": 2426,
      "Ġcall": 2427,
      "member": 2428,
      "remote": 2429,
      "Only": 2430,
      "Last": 2431,
      "DEFAULT": 2432,
      "Ġid": 2433,
      "Ġout": 2434,
      "Ġcase": 2435,
      "unset": 2436,
      "Sets": 2437,
      "Ids": 2438,
      "Change": 2439,
      "ful": 2440,
      "'.'": 2441,
      "ause": 2442,
      "ĠĠĠĠĠĠĠĠĠĠĠĠĠĠĠĠ": 2443,
      "timestamp": 2444,
      "14": 2445,
      "13": 2446,
      "prev": 2447,
      "valu": 2448,
      "MO": 2449,
      "ãģ": 2450,
      "subscri": 2451,
      "thread": 2452,
      "sure": 2453,
      "SC": 2454,
      "socket": 2455,
      "Fa": 2456,
      "Warn": 2457,
      "mary": 2458,
      "rules": 2459,
      "fill": 2460,
      "UP": 2461,
      "Pass": 2462,
      "card": 2463,
      "rection": 2464,
      "plot": 2465,
      "BIND": 2466,
      "ĠCheck": 2467,
      "provider": 2468,
      "ATION": 2469,
      "isEmpty": 2470,
      "diff": 2471,
      "Ġsub": 2472,
      "typeof": 2473,
      "ote": 2474,
      "product": 2475,
      "qual": 2476,
      "igr": 2477,
      "Transaction": 2478,
      "Double": 2479,
      "console": 2480,
      "wait": 2481,
      "mut": 2482,
      "ority": 2483,
      "Red": 2484,
      "Ð¾": 2485,
      "Annotation": 2486,
      "Ġen": 2487,
      "Pay": 2488,
      "Mon": 2489,
      "same": 2490,
      "added": 2491,
      "calcul": 2492,
      "Queue": 2493,
      "coder": 2494,
      "ween": 2495,
      "hether": 2496,
      "Exist": 2497,
      "ULL": 2498,
      "respon": 2499,
      "BINDING": 2500,
      "Ġ+": 2501,
      "off": 2502,
      "IllegalArgumentException": 2503,
      "****************": 2504,
      "IS": 2505,
      "loaded": 2506,
      "ambda": 2507,
      "ports": 2508,
      "Bundle": 2509,
      "rad": 2510,
      "interval": 2511,
      "Ġcreate": 2512,
      "poss": 2513,
      "Ġ{}": 2514,
      "logging": 2515,
      "undefined": 2516,
      "tuple": 2517,
      "ED": 2518,
      "lot": 2519,
      "Flag": 2520,
      "words": 2521,
      "ason": 2522,
      "short": 2523,
      "AND": 2524,
      "pha": 2525,
      "edit": 2526,
      "messages": 2527,
      "Pattern": 2528,
      "bed": 2529,
      "example": 2530,
      "async": 2531,
      "Repository": 2532,
      "reader": 2533,
      "Ðµ": 2534,
      "does": 2535,
      "chedule": 2536,
      "folder": 2537,
      "expr": 2538,
      "40": 2539,
      "dig": 2540,
      "cape": 2541,
      "variables": 2542,
      "cred": 2543,
      "ĠT": 2544,
      "scale": 2545,
      "rout": 2546,
      "ENT": 2547,
      "Ð°": 2548,
      "erce": 2549,
      "Thread": 2550,
      "mapping": 2551,
      "Cluster": 2552,
      "greg": 2553,
      "previous": 2554,
      "etween": 2555,
      "dev": 2556,
      "Loader": 2557,
      "Namespace": 2558,
      "dum": 2559,
      "PHP": 2560,
      "DateTime": 2561,
      "Metric": 2562,
      "Execution": 2563,
      "vari": 2564,
      "Database": 2565,
      "RI": 2566,
      "Ġvalues": 2567,
      "known": 2568,
      "<>": 2569,
      "ven": 2570,
      "Ġother": 2571,
      "cer": 2572,
      "ww": 2573,
      "factory": 2574,
      "Extension": 2575,
      "idden": 2576,
      "Ob": 2577,
      "reset": 2578,
      "It": 2579,
      "commit": 2580,
      "Ġstart": 2581,
      "Cond": 2582,
      "Ġwhich": 2583,
      "ERROR": 2584,
      "Identifier": 2585,
      "ĠA": 2586,
      "atures": 2587,
      "Inner": 2588,
      "Initial": 2589,
      "åı": 2590,
      "Ġnumber": 2591,
      "tool": 2592,
      "Uri": 2593,
      "ancel": 2594,
      "Impl": 2595,
      "Project": 2596,
      "sm": 2597,
      "UID": 2598,
      "vision": 2599,
      "sol": 2600,
      "50": 2601,
      "ster": 2602,
      "configure": 2603,
      "ivity": 2604,
      "angle": 2605,
      "filters": 2606,
      "Failed": 2607,
      "ingle": 2608,
      "dk": 2609,
      "Frame": 2610,
      "SP": 2611,
      "rec": 2612,
      "runtime": 2613,
      "Gets": 2614,
      "term": 2615,
      "One": 2616,
      "19": 2617,
      "diction": 2618,
      "ld": 2619,
      "ĠTODO": 2620,
      "Sprintf": 2621,
      "endar": 2622,
      "('": 2623,
      "Ġtime": 2624,
      ":\"": 2625,
      "imal": 2626,
      "0000": 2627,
      "yield": 2628,
      "HTML": 2629,
      "LS": 2630,
      "Serial": 2631,
      "statement": 2632,
      "Msg": 2633,
      "attach": 2634,
      "consum": 2635,
      "css": 2636,
      "Dr": 2637,
      "region": 2638,
      "UM": 2639,
      "entries": 2640,
      "span": 2641,
      "control": 2642,
      "ware": 2643,
      "skip": 2644,
      "selected": 2645,
      "serialize": 2646,
      "Ter": 2647,
      "dic": 2648,
      "atform": 2649,
      "Ph": 2650,
      "Vis": 2651,
      "Network": 2652,
      "Enum": 2653,
      "vars": 2654,
      "unique": 2655,
      "need": 2656,
      "ĠG": 2657,
      "rece": 2658,
      "stract": 2659,
      "real": 2660,
      "goto": 2661,
      "BU": 2662,
      "Items": 2663,
      "']": 2664,
      "gor": 2665,
      "istory": 2666,
      "trigger": 2667,
      "Connect": 2668,
      "Ġbeen": 2669,
      "optional": 2670,
      "accept": 2671,
      "icon": 2672,
      "Find": 2673,
      "So": 2674,
      "Render": 2675,
      "marshal": 2676,
      "ection": 2677,
      "Addr": 2678,
      "agent": 2679,
      "30": 2680,
      "prec": 2681,
      "entials": 2682,
      "attrs": 2683,
      "getClass": 2684,
      "docs": 2685,
      "gu": 2686,
      "about": 2687,
      "gn": 2688,
      "cheme": 2689,
      "Limit": 2690,
      "Ġinto": 2691,
      "Plugin": 2692,
      "complete": 2693,
      "dst": 2694,
      "Device": 2695,
      "structure": 2696,
      "Custom": 2697,
      "ĠE": 2698,
      "ground": 2699,
      "Ġinst": 2700,
      "Bind": 2701,
      ").": 2702,
      "omet": 2703,
      "STR": 2704,
      "SH": 2705,
      "hook": 2706,
      "Join": 2707,
      "layout": 2708,
      "changed": 2709,
      "atom": 2710,
      "ither": 2711,
      "Headers": 2712,
      "Bean": 2713,
      "Descriptor": 2714,
      "dtype": 2715,
      "img": 2716,
      "Ġread": 2717,
      "First": 2718,
      "Ġmatch": 2719,
      "ET": 2720,
      "changes": 2721,
      "details": 2722,
      "ogle": 2723,
      "perform": 2724,
      "issing": 2725,
      "tf": 2726,
      "rency": 2727,
      "SD": 2728,
      "Core": 2729,
      "Mapping": 2730,
      "edge": 2731,
      "shift": 2732,
      "primary": 2733,
      "Tags": 2734,
      "ier": 2735,
      "Permission": 2736,
      "andard": 2737,
      "ater": 2738,
      "ges": 2739,
      "Scope": 2740,
      "cast": 2741,
      "ĠĠĠĠĠĠĠ": 2742,
      "ha": 2743,
      "ites": 2744,
      "edia": 2745,
      "Domain": 2746,
      "login": 2747,
      "60": 2748,
      "Comple": 2749,
      "ways": 2750,
      "sequence": 2751,
      "loader": 2752,
      "datetime": 2753,
      "vailable": 2754,
      "GER": 2755,
      "strlen": 2756,
      "ship": 2757,
      "rieve": 2758,
      "Ġhere": 2759,
      "ived": 2760,
      "Register": 2761,
      "button": 2762,
      "ferences": 2763,
      "until": 2764,
      "Statement": 2765,
      "explo": 2766,
      "leted": 2767,
      "cour": 2768,
      "PAT": 2769,
      "seq": 2770,
      "Ġend": 2771,
      "supported": 2772,
      "ĊĠĠ": 2773,
      "uch": 2774,
      "Ġempty": 2775,
      "sig": 2776,
      "month": 2777,
      "\"'": 2778,
      "cc": 2779,
      "binary": 2780,
      "helper": 2781,
      "year": 2782,
      "cert": 2783,
      "Script": 2784,
      "ls": 2785,
      "ĠGet": 2786,
      "cursor": 2787,
      "Control": 2788,
      "zero": 2789,
      "owner": 2790,
      "desc": 2791,
      "Bound": 2792,
      "POST": 2793,
      "Ġn": 2794,
      "book": 2795,
      "sorted": 2796,
      "grade": 2797,
      "RuntimeException": 2798,
      "lig": 2799,
      "finally": 2800,
      "Ġmod": 2801,
      "ared": 2802,
      "retry": 2803,
      "override": 2804,
      "AWS": 2805,
      "Top": 2806,
      "press": 2807,
      "Gr": 2808,
      "delta": 2809,
      "CP": 2810,
      "ired": 2811,
      "InputStream": 2812,
      "ĠH": 2813,
      "thon": 2814,
      "ABLE": 2815,
      "sto": 2816,
      "pkg": 2817,
      "Ġnode": 2818,
      "collect": 2819,
      "Nodes": 2820,
      "PRE": 2821,
      "substring": 2822,
      "Endpoint": 2823,
      "ended": 2824,
      "INT": 2825,
      "çļ": 2826,
      "extends": 2827,
      "safe": 2828,
      "Ġsy": 2829,
      "(\"": 2830,
      "Ġreg": 2831,
      "entication": 2832,
      "NOT": 2833,
      "operator": 2834,
      "çļĦ": 2835,
      "destination": 2836,
      "ten": 2837,
      "listener": 2838,
      "Alias": 2839,
      "achine": 2840,
      "Ġeach": 2841,
      ">\"": 2842,
      "integer": 2843,
      "publish": 2844,
      "17": 2845,
      "Ġdon": 2846,
      "MS": 2847,
      "Struct": 2848,
      "bro": 2849,
      "Box": 2850,
      "clone": 2851,
      "NS": 2852,
      "Ifc": 2853,
      "strto": 2854,
      "lied": 2855,
      "VALUE": 2856,
      "'{": 2857,
      "fp": 2858,
      "Ġcode": 2859,
      "gorith": 2860,
      "ident": 2861,
      "depth": 2862,
      "Registry": 2863,
      "bundle": 2864,
      "redirect": 2865,
      "'#": 2866,
      "reflect": 2867,
      "compare": 2868,
      "Ġindex": 2869,
      "plode": 2870,
      "getType": 2871,
      "indexOf": 2872,
      "ãĤ": 2873,
      "inner": 2874,
      "Constraint": 2875,
      "multi": 2876,
      "execut": 2877,
      "conv": 2878,
      "done": 2879,
      "lambda": 2880,
      "side": 2881,
      "Ð¸": 2882,
      "Ver": 2883,
      "åĪ": 2884,
      "character": 2885,
      "clar": 2886,
      "adding": 2887,
      "dt": 2888,
      "ead": 2889,
      "Allow": 2890,
      "eric": 2891,
      "Note": 2892,
      "sv": 2893,
      "possible": 2894,
      "subject": 2895,
      "Ġused": 2896,
      "Locale": 2897,
      "SET": 2898,
      "font": 2899,
      "but": 2900,
      "ategy": 2901,
      "running": 2902,
      "Each": 2903,
      "Graph": 2904,
      "iddle": 2905,
      "eners": 2906,
      "izes": 2907,
      "Html": 2908,
      "StringBuilder": 2909,
      "keep": 2910,
      "constraint": 2911,
      "explode": 2912,
      "200": 2913,
      "ose": 2914,
      "implode": 2915,
      "ount": 2916,
      "symbol": 2917,
      "scan": 2918,
      "Results": 2919,
      "etermine": 2920,
      "ï¼": 2921,
      "utf": 2922,
      "Go": 2923,
      "voke": 2924,
      "scal": 2925,
      "media": 2926,
      "ler": 2927,
      "########": 2928,
      "was": 2929,
      "quote": 2930,
      "partition": 2931,
      "Ġrequired": 2932,
      "alpha": 2933,
      "export": 2934,
      "Ġfield": 2935,
      "Proxy": 2936,
      "Messages": 2937,
      "upper": 2938,
      "icle": 2939,
      "widget": 2940,
      "AGE": 2941,
      "Ġline": 2942,
      "QU": 2943,
      "chan": 2944,
      "FO": 2945,
      "paces": 2946,
      "Ġ|": 2947,
      "rowser": 2948,
      "period": 2949,
      "US": 2950,
      "InvalidArgumentException": 2951,
      "Agent": 2952,
      "Security": 2953,
      "ãĥ": 2954,
      "Ġfind": 2955,
      "props": 2956,
      "))": 2957,
      "menu": 2958,
      "Ġback": 2959,
      "curl": 2960,
      "repo": 2961,
      "specific": 2962,
      "extend": 2963,
      "users": 2964,
      "FILE": 2965,
      "Dest": 2966,
      "Optional": 2967,
      "det": 2968,
      "salt": 2969,
      "Ġjust": 2970,
      "Ġthan": 2971,
      "creen": 2972,
      "prepare": 2973,
      "MENT": 2974,
      "\"\"\"": 2975,
      "Validation": 2976,
      "ateway": 2977,
      "Condition": 2978,
      "Protocol": 2979,
      "asic": 2980,
      "Ġmessage": 2981,
      "ServiceResponse": 2982,
      "validator": 2983,
      "stmt": 2984,
      "itu": 2985,
      "encies": 2986,
      "\"%": 2987,
      "Mark": 2988,
      "Ġversion": 2989,
      "Sum": 2990,
      "lookup": 2991,
      "driver": 2992,
      "andlers": 2993,
      "FOR": 2994,
      "Columns": 2995,
      "Ġle": 2996,
      "Duration": 2997,
      "Author": 2998,
      "Tx": 2999,
      "Ċĉ": 3000,
      "prom": 3001,
      "cover": 3002,
      "ily": 3003,
      "uuid": 3004,
      "she": 3005,
      "mag": 3006,
      "Window": 3007,
      "bot": 3008,
      "\".": 3009,
      "nd": 3010,
      "exc": 3011,
      "ĊĠĠĠĠĠĠĠ": 3012,
      "Ġr": 3013,
      "ensure": 3014,
      "Has": 3015,
      "ĊĠĠĠĠĠĠĠĠĠĠĠ": 3016,
      "Xml": 3017,
      "ename": 3018,
      "annotation": 3019,
      "compute": 3020,
      "ĠO": 3021,
      "actions": 3022,
      "warning": 3023,
      "Unlock": 3024,
      "tra": 3025,
      "cached": 3026,
      "ision": 3027,
      "Chain": 3028,
      "getC": 3029,
      "Atom": 3030,
      "Fin": 3031,
      "ement": 3032,
      "println": 3033,
      "install": 3034,
      "synchron": 3035,
      "Resources": 3036,
      "exter": 3037,
      "sec": 3038,
      "Unable": 3039,
      "allowed": 3040,
      "Cloud": 3041,
      "gorithm": 3042,
      "IL": 3043,
      "generated": 3044,
      "medi": 3045,
      "velo": 3046,
      "Relation": 3047,
      "notations": 3048,
      "Ġbecause": 3049,
      "counter": 3050,
      "Float": 3051,
      "Ġcannot": 3052,
      "echo": 3053,
      "Ġexist": 3054,
      "Ġv": 3055,
      "iler": 3056,
      "DS": 3057,
      "indent": 3058,
      "IC": 3059,
      "rest": 3060,
      "umb": 3061,
      "Raw": 3062,
      "Bucket": 3063,
      "Tracing": 3064,
      "PER": 3065,
      "seconds": 3066,
      "gp": 3067,
      "cker": 3068,
      "secret": 3069,
      "ws": 3070,
      "upload": 3071,
      "prob": 3072,
      "defaults": 3073,
      "Dec": 3074,
      "Throw": 3075,
      "again": 3076,
      "pod": 3077,
      "Mat": 3078,
      "Product": 3079,
      "Multi": 3080,
      "alk": 3081,
      "passed": 3082,
      "Ġlog": 3083,
      "Ġbefore": 3084,
      "creates": 3085,
      "escape": 3086,
      "${": 3087,
      "Batch": 3088,
      "sheet": 3089,
      "Events": 3090,
      "rs": 3091,
      "<-": 3092,
      "segment": 3093,
      "Ġsame": 3094,
      "analy": 3095,
      "por": 3096,
      "hex": 3097,
      "enabled": 3098,
      "NULL": 3099,
      "Pri": 3100,
      "mount": 3101,
      "Ġwork": 3102,
      "Ġrule": 3103,
      "Db": 3104,
      "untry": 3105,
      "seg": 3106,
      "pag": 3107,
      "course": 3108,
      "VE": 3109,
      "Abstract": 3110,
      "Elements": 3111,
      "Transform": 3112,
      "repository": 3113,
      "flush": 3114,
      "criteria": 3115,
      "andid": 3116,
      "Button": 3117,
      "Layout": 3118,
      "Ġstate": 3119,
      "amount": 3120,
      "Sdk": 3121,
      "pid": 3122,
      "ĠAdd": 3123,
      "Ġact": 3124,
      "ÑĤ": 3125,
      "ynam": 3126,
      "22": 3127,
      "bose": 3128,
      "Own": 3129,
      "Required": 3130,
      "IG": 3131,
      "Sequence": 3132,
      "filepath": 3133,
      "Ġallow": 3134,
      "ometry": 3135,
      "Ġmay": 3136,
      "ng": 3137,
      "Title": 3138,
      "models": 3139,
      "Ġk": 3140,
      "Simple": 3141,
      "Password": 3142,
      "EC": 3143,
      "Language": 3144,
      "see": 3145,
      "dispatch": 3146,
      "['": 3147,
      "Active": 3148,
      "Unmarshal": 3149,
      "Transl": 3150,
      "Ġmake": 3151,
      "Ġinput": 3152,
      "signature": 3153,
      "two": 3154,
      "ifiers": 3155,
      "Ġargument": 3156,
      "Ġblock": 3157,
      "COL": 3158,
      "popul": 3159,
      "Ġ/": 3160,
      "TA": 3161,
      "td": 3162,
      "Att": 3163,
      "Assign": 3164,
      "ĠSet": 3165,
      "whether": 3166,
      "board": 3167,
      "emit": 3168,
      "Generator": 3169,
      "Ġ}": 3170,
      "You": 3171,
      "getM": 3172,
      "gnore": 3173,
      "Bin": 3174,
      "generator": 3175,
      "Groups": 3176,
      "external": 3177,
      "Ġcom": 3178,
      "33": 3179,
      "Fail": 3180,
      "coll": 3181,
      "selector": 3182,
      "Ġtable": 3183,
      "ĠR": 3184,
      "asure": 3185,
      "components": 3186,
      "Ġusing": 3187,
      "visit": 3188,
      "nb": 3189,
      "eline": 3190,
      "Subscri": 3191,
      "UB": 3192,
      "Ġinit": 3193,
      "already": 3194,
      "TypeError": 3195,
      "Ġinstance": 3196,
      "environment": 3197,
      "Ġover": 3198,
      "reshold": 3199,
      "validation": 3200,
      "Ġac": 3201,
      "Ġex": 3202,
      "plates": 3203,
      "verter": 3204,
      "itude": 3205,
      "strpos": 3206,
      "Ð½": 3207,
      "','": 3208,
      "requests": 3209,
      "ced": 3210,
      "////////////////": 3211,
      "verify": 3212,
      "tab": 3213,
      "Ġelement": 3214,
      "sym": 3215,
      "pose": 3216,
      "Interval": 3217,
      "Cell": 3218,
      "enumer": 3219,
      "Def": 3220,
      "links": 3221,
      "Ġspecified": 3222,
      "TracingEnabled": 3223,
      "updated": 3224,
      "Wrapper": 3225,
      "isAny": 3226,
      "dataset": 3227,
      "Ġprocess": 3228,
      "Sort": 3229,
      "wd": 3230,
      "Ġremove": 3231,
      "direction": 3232,
      "ĠRe": 3233,
      "suffix": 3234,
      "Opt": 3235,
      "Step": 3236,
      "Ne": 3237,
      "conditions": 3238,
      "sim": 3239,
      "Attr": 3240,
      "Stop": 3241,
      "Ġresponse": 3242,
      "plic": 3243,
      "additional": 3244,
      "center": 3245,
      "isAnyTracingEnabled": 3246,
      "Sync": 3247,
      "Pair": 3248,
      "strib": 3249,
      "Ġmore": 3250,
      "Put": 3251,
      "TIME": 3252,
      "equal": 3253,
      "Ġwrit": 3254,
      "encoded": 3255,
      "mean": 3256,
      "ually": 3257,
      "Ge": 3258,
      "Ġ\"%": 3259,
      "ines": 3260,
      "duration": 3261,
      "DAT": 3262,
      "Adds": 3263,
      "Second": 3264,
      "Ġformat": 3265,
      "area": 3266,
      "ployment": 3267,
      "Email": 3268,
      "rv": 3269,
      "ferent": 3270,
      "usage": 3271,
      "80": 3272,
      "aml": 3273,
      "PC": 3274,
      "callable": 3275,
      "finish": 3276,
      "agment": 3277,
      "getKey": 3278,
      "branch": 3279,
      "Ġnon": 3280,
      "otal": 3281,
      "unless": 3282,
      "LOGGER": 3283,
      "services": 3284,
      "Ġexists": 3285,
      "resses": 3286,
      "Cred": 3287,
      "Generate": 3288,
      "strict": 3289,
      "cookie": 3290,
      "gre": 3291,
      "uplic": 3292,
      "Java": 3293,
      "NON": 3294,
      "associated": 3295,
      "Identity": 3296,
      "packet": 3297,
      "iss": 3298,
      "AY": 3299,
      "features": 3300,
      "Folder": 3301,
      "Ġafter": 3302,
      "Ġgiven": 3303,
      "master": 3304,
      "rot": 3305,
      "Ġsure": 3306,
      "ling": 3307,
      "erson": 3308,
      "normalize": 3309,
      "MAX": 3310,
      "Profile": 3311,
      "constructor": 3312,
      "zon": 3313,
      "ixel": 3314,
      "Future": 3315,
      "Vector": 3316,
      "Prom": 3317,
      "ErrCode": 3318,
      "light": 3319,
      "Ġcor": 3320,
      "ATOR": 3321,
      "commands": 3322,
      "Word": 3323,
      "platform": 3324,
      "Segment": 3325,
      "Chang": 3326,
      "au": 3327,
      "'--": 3328,
      "amaz": 3329,
      "PATH": 3330,
      "ian": 3331,
      "occur": 3332,
      "Ġtry": 3333,
      "fully": 3334,
      "enable": 3335,
      "TraceComponent": 3336,
      "Ġpassed": 3337,
      "Ġupdate": 3338,
      "Import": 3339,
      "rate": 3340,
      "high": 3341,
      "checked": 3342,
      "Member": 3343,
      "Ġoutput": 3344,
      "Space": 3345,
      "amazon": 3346,
      "SION": 3347,
      "ollowing": 3348,
      "Public": 3349,
      "upt": 3350,
      "compile": 3351,
      "records": 3352,
      "Certificate": 3353,
      "actual": 3354,
      "Ġlast": 3355,
      "Admin": 3356,
      "ui": 3357,
      "Feature": 3358,
      "Left": 3359,
      "ibility": 3360,
      "concat": 3361,
      "elem": 3362,
      "crement": 3363,
      "VI": 3364,
      "Volume": 3365,
      "sn": 3366,
      "azz": 3367,
      "tries": 3368,
      "plan": 3369,
      "fic": 3370,
      "regex": 3371,
      "Short": 3372,
      "Ġresult": 3373,
      "Ġclo": 3374,
      "getInstance": 3375,
      "Display": 3376,
      "HashMap": 3377,
      "servable": 3378,
      "<!": 3379,
      "END": 3380,
      "Comput": 3381,
      "Errors": 3382,
      "Auto": 3383,
      "kind": 3384,
      "NotFoundException": 3385,
      "lex": 3386,
      "ĠIn": 3387,
      "Look": 3388,
      "without": 3389,
      "(?": 3390,
      "ClientException": 3391,
      "wrapper": 3392,
      "want": 3393,
      "dimension": 3394,
      "SO": 3395,
      "ev": 3396,
      "Encode": 3397,
      "Details": 3398,
      "enter": 3399,
      "Ġfiles": 3400,
      "sk": 3401,
      "vals": 3402,
      "dictionary": 3403,
      "ĠID": 3404,
      "indices": 3405,
      "),": 3406,
      "Ġdirectory": 3407,
      "asset": 3408,
      "After": 3409,
      "Matrix": 3410,
      "cessed": 3411,
      "ives": 3412,
      "åĲ": 3413,
      "BO": 3414,
      "aut": 3415,
      "Construct": 3416,
      "Pan": 3417,
      "ĠCreate": 3418,
      "images": 3419,
      "\"<": 3420,
      "drop": 3421,
      "ACE": 3422,
      "ClassName": 3423,
      "draw": 3424,
      "dom": 3425,
      "Sib": 3426,
      "Remote": 3427,
      "CLA": 3428,
      "redu": 3429,
      "Consum": 3430,
      "cluded": 3431,
      "Ġexception": 3432,
      "Tim": 3433,
      "jection": 3434,
      "Ġsize": 3435,
      "series": 3436,
      "CI": 3437,
      "INE": 3438,
      "herit": 3439,
      "volume": 3440,
      "iteral": 3441,
      "verbose": 3442,
      "setup": 3443,
      "UTF": 3444,
      "]+": 3445,
      "imension": 3446,
      "related": 3447,
      "UUID": 3448,
      "Down": 3449,
      "Ġorder": 3450,
      "USER": 3451,
      "exclude": 3452,
      "engine": 3453,
      "roy": 3454,
      "progress": 3455,
      "Ġ{}\"": 3456,
      "boot": 3457,
      "Ġquery": 3458,
      "release": 3459,
      "Day": 3460,
      "Timestamp": 3461,
      "ele": 3462,
      "Art": 3463,
      "ically": 3464,
      "watch": 3465,
      "named": 3466,
      "numpy": 3467,
      "distance": 3468,
      "PT": 3469,
      "Me": 3470,
      "Kind": 3471,
      "Zone": 3472,
      "([": 3473,
      "Ġ3": 3474,
      "stdout": 3475,
      "numeric": 3476,
      "\"-": 3477,
      "how": 3478,
      "invalidParams": 3479,
      "ycle": 3480,
      "ural": 3481,
      "been": 3482,
      "both": 3483,
      "forEach": 3484,
      "Ġevent": 3485,
      "ĠL": 3486,
      "registry": 3487,
      "alle": 3488,
      "mac": 3489,
      "Stats": 3490,
      "train": 3491,
      "Ġ--": 3492,
      "Driver": 3493,
      "permissions": 3494,
      "UI": 3495,
      "Ð¾Ð": 3496,
      "ense": 3497,
      "ZE": 3498,
      "ove": 3499,
      "Ġtoken": 3500,
      "score": 3501,
      "ACK": 3502,
      "ops": 3503,
      "FIX": 3504,
      "ntax": 3505,
      "align": 3506,
      "ORD": 3507,
      "cursive": 3508,
      "modules": 3509,
      "Ġour": 3510,
      "Ġcache": 3511,
      "future": 3512,
      "mu": 3513,
      "fileName": 3514,
      "feed": 3515,
      "extensions": 3516,
      "Loc": 3517,
      "Exists": 3518,
      "characters": 3519,
      "cade": 3520,
      "ifest": 3521,
      "curr": 3522,
      "55": 3523,
      "dot": 3524,
      "ALL": 3525,
      "setting": 3526,
      "synchronized": 3527,
      "Servlet": 3528,
      "iff": 3529,
      "FS": 3530,
      "SDK": 3531,
      "Pointer": 3532,
      "ending": 3533,
      "TEX": 3534,
      "OK": 3535,
      "topic": 3536,
      "persist": 3537,
      "via": 3538,
      "LOC": 3539,
      "getattr": 3540,
      "ipeline": 3541,
      "ik": 3542,
      "Expr": 3543,
      "Media": 3544,
      "Bl": 3545,
      "Ġnow": 3546,
      "once": 3547,
      "Ġnext": 3548,
      "relative": 3549,
      "oid": 3550,
      "PARAM": 3551,
      "Checks": 3552,
      "ĠJ": 3553,
      "cd": 3554,
      "peer": 3555,
      "Sw": 3556,
      "between": 3557,
      "attempt": 3558,
      "Comment": 3559,
      "getProperty": 3560,
      "Socket": 3561,
      "36": 3562,
      "Ġsome": 3563,
      "eries": 3564,
      "ä»": 3565,
      "Engine": 3566,
      "aggreg": 3567,
      "Throwable": 3568,
      "plugins": 3569,
      "Objects": 3570,
      "lon": 3571,
      "termin": 3572,
      "them": 3573,
      "instances": 3574,
      "hasattr": 3575,
      "Ġfailed": 3576,
      "under": 3577,
      "Test": 3578,
      "sis": 3579,
      "roles": 3580,
      "Big": 3581,
      "embed": 3582,
      "GroupName": 3583,
      "Notification": 3584,
      "000": 3585,
      "EClass": 3586,
      "pot": 3587,
      "best": 3588,
      "Ġparameter": 3589,
      "ffect": 3590,
      "apped": 3591,
      "Append": 3592,
      "OutputStream": 3593,
      "Adapter": 3594,
      "ithub": 3595,
      "CS": 3596,
      "cancel": 3597,
      "Ġyou": 3598,
      "multiple": 3599,
      "fast": 3600,
      "GP": 3601,
      "ordin": 3602,
      "reser": 3603,
      "ifact": 3604,
      "Ġcon": 3605,
      "ï¼Į": 3606,
      "missing": 3607,
      "Depend": 3608,
      "cols": 3609,
      "Category": 3610,
      "uccess": 3611,
      "ÑĢ": 3612,
      "OF": 3613,
      "ius": 3614,
      "akes": 3615,
      "correct": 3616,
      "memory": 3617,
      "SELE": 3618,
      "Ġthem": 3619,
      "adapter": 3620,
      "ook": 3621,
      "Ignore": 3622,
      "ique": 3623,
      "cut": 3624,
      "Attach": 3625,
      "remain": 3626,
      "cm": 3627,
      "CUR": 3628,
      "Full": 3629,
      "QUE": 3630,
      "ORT": 3631,
      "DATE": 3632,
      "quot": 3633,
      "uc": 3634,
      "href": 3635,
      "priority": 3636,
      "-=": 3637,
      "æĸ": 3638,
      "uses": 3639,
      "translate": 3640,
      "Secret": 3641,
      "compat": 3642,
      "amily": 3643,
      "Lower": 3644,
      "'ve": 3645,
      "Ġconfig": 3646,
      "Common": 3647,
      "bits": 3648,
      "Charact": 3649,
      "Validator": 3650,
      "clazz": 3651,
      "ORY": 3652,
      "ROM": 3653,
      "factor": 3654,
      "havi": 3655,
      "cloud": 3656,
      "Ġ#": 3657,
      "dirname": 3658,
      "ixed": 3659,
      "define": 3660,
      "LOW": 3661,
      "evalu": 3662,
      "255": 3663,
      "modified": 3664,
      "'$": 3665,
      "æķ": 3666,
      "Children": 3667,
      "panic": 3668,
      "ases": 3669,
      "bean": 3670,
      "credentials": 3671,
      "Extract": 3672,
      "metrics": 3673,
      "strtolower": 3674,
      "Snapshot": 3675,
      "DOM": 3676,
      "pages": 3677,
      "Bit": 3678,
      "Ġ.": 3679,
      "Ġhandle": 3680,
      "identity": 3681,
      "Pe": 3682,
      "sted": 3683,
      "Insert": 3684,
      "fire": 3685,
      "ox": 3686,
      "security": 3687,
      "isDebug": 3688,
      "Ġparent": 3689,
      "acy": 3690,
      "mar": 3691,
      "Ġme": 3692,
      "Del": 3693,
      "Observable": 3694,
      "ASE": 3695,
      "holder": 3696,
      "ifc": 3697,
      "Ġlength": 3698,
      ">>>": 3699,
      "chars": 3700,
      "getAttribute": 3701,
      "maximum": 3702,
      "sq": 3703,
      "sco": 3704,
      "git": 3705,
      "anization": 3706,
      "Ġserver": 3707,
      "erge": 3708,
      "Us": 3709,
      "wo": 3710,
      "currency": 3711,
      "lean": 3712,
      ":'": 3713,
      "gt": 3714,
      "uring": 3715,
      "Menu": 3716,
      "Selector": 3717,
      "virt": 3718,
      "Decode": 3719,
      "Ġmarshall": 3720,
      "Apply": 3721,
      "reverse": 3722,
      "click": 3723,
      "through": 3724,
      "ategories": 3725,
      "DATA": 3726,
      "Dial": 3727,
      "ross": 3728,
      "hy": 3729,
      "CLASS": 3730,
      "SdkClientException": 3731,
      "Enc": 3732,
      "':'": 3733,
      "fieldName": 3734,
      "256": 3735,
      "atest": 3736,
      "Pod": 3737,
      "Ġ#{": 3738,
      "pad": 3739,
      "Ġpass": 3740,
      "Unknown": 3741,
      "è¯": 3742,
      "'\\\\": 3743,
      "lif": 3744,
      "Ġload": 3745,
      "editor": 3746,
      "iddleware": 3747,
      "ES": 3748,
      "23": 3749,
      "MAT": 3750,
      "Example": 3751,
      "Resolver": 3752,
      "slug": 3753,
      "Calendar": 3754,
      "Rows": 3755,
      "HER": 3756,
      "Ġconnection": 3757,
      "than": 3758,
      "router": 3759,
      "Ġinitial": 3760,
      "Ġremo": 3761,
      "Ġ?": 3762,
      "Report": 3763,
      "faces": 3764,
      "worker": 3765,
      "ARN": 3766,
      "ĊĠĠĠĠĠĠĠĠĠĠĠĠĠĠĠ": 3767,
      "dump": 3768,
      "commerce": 3769,
      "isEntry": 3770,
      "[]": 3771,
      "pending": 3772,
      "configured": 3773,
      "vers": 3774,
      "Right": 3775,
      "px": 3776,
      "'-'": 3777,
      "calculate": 3778,
      "math": 3779,
      "Uint": 3780,
      "isEntryEnabled": 3781,
      "hour": 3782,
      "txt": 3783,
      "download": 3784,
      "ront": 3785,
      "Ġrun": 3786,
      "ider": 3787,
      "IF": 3788,
      "Persist": 3789,
      "expand": 3790,
      "Ġtr": 3791,
      "efault": 3792,
      "ormal": 3793,
      "Det": 3794,
      "times": 3795,
      "Vert": 3796,
      "Ġsince": 3797,
      "\"/\"": 3798,
      "firm": 3799,
      "ape": 3800,
      "Split": 3801,
      "Execute": 3802,
      "OS": 3803,
      "aved": 3804,
      "SELECT": 3805,
      "alth": 3806,
      "Could": 3807,
      "SERVER": 3808,
      "entities": 3809,
      "Layer": 3810,
      "Ġmult": 3811,
      "SIZE": 3812,
      "Symbol": 3813,
      "COM": 3814,
      "fd": 3815,
      "containing": 3816,
      "Paths": 3817,
      "cessary": 3818,
      "Upload": 3819,
      "tick": 3820,
      "reply": 3821,
      "Environment": 3822,
      "lip": 3823,
      "ANG": 3824,
      "blocks": 3825,
      "libr": 3826,
      "pb": 3827,
      "poly": 3828,
      "quires": 3829,
      "backend": 3830,
      "Rules": 3831,
      "jav": 3832,
      "ving": 3833,
      "}/": 3834,
      "Pol": 3835,
      "charset": 3836,
      "Ġcould": 3837,
      "Widget": 3838,
      "Before": 3839,
      "OD": 3840,
      "simple": 3841,
      "Collect": 3842,
      "*'": 3843,
      "1000": 3844,
      "AU": 3845,
      "Tool": 3846,
      "pret": 3847,
      "dd": 3848,
      "beta": 3849,
      "resolved": 3850,
      "cam": 3851,
      "Warnings": 3852,
      "fit": 3853,
      "63": 3854,
      "signed": 3855,
      "partial": 3856,
      "Execut": 3857,
      "ĠJSON": 3858,
      "AX": 3859,
      "question": 3860,
      "Ñģ": 3861,
      "ube": 3862,
      "matching": 3863,
      "Parts": 3864,
      "separator": 3865,
      "Total": 3866,
      "02": 3867,
      "execution": 3868,
      "CR": 3869,
      "ynamic": 3870,
      "ferred": 3871,
      "Cap": 3872,
      "Ġrel": 3873,
      "migr": 3874,
      "anaged": 3875,
      "utdown": 3876,
      "members": 3877,
      "Wait": 3878,
      "atio": 3879,
      "Sql": 3880,
      "some": 3881,
      "Idx": 3882,
      "isDebugEnabled": 3883,
      "signal": 3884,
      "prototype": 3885,
      "scheme": 3886,
      "days": 3887,
      "Site": 3888,
      "encrypt": 3889,
      "iginal": 3890,
      "startswith": 3891,
      "Ġx": 3892,
      "pointer": 3893,
      "vector": 3894,
      "Associ": 3895,
      "Dict": 3896,
      "Ġgo": 3897,
      "summary": 3898,
      "sor": 3899,
      "getData": 3900,
      "enumerate": 3901,
      "Section": 3902,
      "istration": 3903,
      "Ġtext": 3904,
      "Ġmodel": 3905,
      "candid": 3906,
      "Ġits": 3907,
      "covery": 3908,
      "Global": 3909,
      "mi": 3910,
      "Bad": 3911,
      "Save": 3912,
      "Ġcontent": 3913,
      "gb": 3914,
      "tile": 3915,
      "plied": 3916,
      "STAT": 3917,
      "edges": 3918,
      "stribution": 3919,
      "Counter": 3920,
      "Perform": 3921,
      "Success": 3922,
      "lear": 3923,
      "grad": 3924,
      "Fetch": 3925,
      "Rece": 3926,
      "Region": 3927,
      "limiter": 3928,
      "units": 3929,
      "vol": 3930,
      "disk": 3931,
      "chr": 3932,
      "Ġwant": 3933,
      "await": 3934,
      "aces": 3935,
      "precated": 3936,
      "Such": 3937,
      "note": 3938,
      "Arguments": 3939,
      "IDs": 3940,
      "Assert": 3941,
      "binding": 3942,
      "Missing": 3943,
      "TEXT": 3944,
      "payment": 3945,
      "github": 3946,
      "Ġproperty": 3947,
      "getRequest": 3948,
      "valueOf": 3949,
      "SEPAR": 3950,
      "routes": 3951,
      "mazon": 3952,
      "Rate": 3953,
      "leep": 3954,
      "Ġdoesn": 3955,
      "kernel": 3956,
      "When": 3957,
      "strap": 3958,
      "reason": 3959,
      "Methods": 3960,
      "notification": 3961,
      "DIR": 3962,
      "Edit": 3963,
      "Ġmodule": 3964,
      "Strategy": 3965,
      "history": 3966,
      "æķ°": 3967,
      "\"_": 3968,
      "ti": 3969,
      "states": 3970,
      "hs": 3971,
      "bounds": 3972,
      "ze": 3973,
      "Encoding": 3974,
      "istics": 3975,
      "cus": 3976,
      "cms": 3977,
      "initialize": 3978,
      "stderr": 3979,
      "Ġconfiguration": 3980,
      "chedul": 3981,
      "MI": 3982,
      "35": 3983,
      "Conn": 3984,
      "HERE": 3985,
      "invoke": 3986,
      "contact": 3987,
      "csv": 3988,
      "refresh": 3989,
      "getConfig": 3990,
      "27": 3991,
      "dio": 3992,
      "translation": 3993,
      "SEPARATOR": 3994,
      "CODE": 3995,
      "Flow": 3996,
      "Ġclient": 3997,
      "LETE": 3998,
      "clus": 3999,
      "ssl": 4000,
      "variant": 4001,
      "Ġdat": 4002,
      "uction": 4003,
      "//$": 4004,
      "Amazon": 4005,
      "consumer": 4006,
      "å®": 4007,
      "neg": 4008,
      "acc": 4009,
      "Ġwhere": 4010,
      "inject": 4011,
      "Sc": 4012,
      "Dig": 4013,
      "claration": 4014,
      "vs": 4015,
      "arge": 4016,
      "conversion": 4017,
      "verage": 4018,
      "Flags": 4019,
      "ene": 4020,
      "calls": 4021,
      "cas": 4022,
      "coordin": 4023,
      "absol": 4024,
      "Are": 4025,
      "Ġu": 4026,
      "atten": 4027,
      "!\"": 4028,
      "Conf": 4029,
      "archive": 4030,
      "compiler": 4031,
      "orig": 4032,
      "(\\": 4033,
      "rf": 4034,
      "formatter": 4035,
      "Ġsign": 4036,
      "inputs": 4037,
      "google": 4038,
      "ryption": 4039,
      "Binary": 4040,
      "stored": 4041,
      "'</": 4042,
      "within": 4043,
      "MIN": 4044,
      "Scan": 4045,
      "Desc": 4046,
      "functions": 4047,
      "vas": 4048,
      "ĠNo": 4049,
      "Ġavailable": 4050,
      "getPath": 4051,
      "eval": 4052,
      "chart": 4053,
      "Promise": 4054,
      "toArray": 4055,
      "codes": 4056,
      "Month": 4057,
      "Vir": 4058,
      "Prop": 4059,
      "implementation": 4060,
      "requ": 4061,
      "Ġrecord": 4062,
      "acity": 4063,
      "free": 4064,
      "snapshot": 4065,
      "mak": 4066,
      "($": 4067,
      "ighb": 4068,
      "retrieve": 4069,
      "hidden": 4070,
      "Destination": 4071,
      ";'": 4072,
      "Mapper": 4073,
      "Commit": 4074,
      "Ġimage": 4075,
      "gl": 4076,
      "Tokens": 4077,
      "El": 4078,
      "ef": 4079,
      "Modified": 4080,
      "percent": 4081,
      "blob": 4082,
      "bs": 4083,
      "samples": 4084,
      "aster": 4085,
      "Cannot": 4086,
      "28": 4087,
      "Ċĉĉĉĉ": 4088,
      "\">": 4089,
      "argin": 4090,
      "irect": 4091,
      "tasks": 4092,
      "Calcul": 4093,
      "]\"": 4094,
      "Ġpoint": 4095,
      "ptr": 4096,
      "glob": 4097,
      "Period": 4098,
      "they": 4099,
      "transport": 4100,
      "Over": 4101,
      "METH": 4102,
      "andling": 4103,
      "SibTr": 4104,
      "Watch": 4105,
      "selection": 4106,
      "licit": 4107,
      "python": 4108,
      "DIRE": 4109,
      "logy": 4110,
      "================================": 4111,
      "ressed": 4112,
      "errupt": 4113,
      "Analy": 4114,
      "')": 4115,
      "æľ": 4116,
      "charAt": 4117,
      "tat": 4118,
      "Ġ=>": 4119,
      "absolute": 4120,
      "tring": 4121,
      "Requests": 4122,
      "scalar": 4123,
      "lies": 4124,
      "Ġthey": 4125,
      "basename": 4126,
      "allback": 4127,
      "alan": 4128,
      "visible": 4129,
      "alled": 4130,
      "unch": 4131,
      "cos": 4132,
      "www": 4133,
      "VERSION": 4134,
      "Ġdefined": 4135,
      "48": 4136,
      "xx": 4137,
      "delay": 4138,
      "catalog": 4139,
      "è¿": 4140,
      "virtual": 4141,
      "Virt": 4142,
      "matcher": 4143,
      "Signature": 4144,
      "21": 4145,
      "logic": 4146,
      "Plan": 4147,
      "Ġheader": 4148,
      "\":": 4149,
      "HO": 4150,
      "schedule": 4151,
      "unknown": 4152,
      "aim": 4153,
      "åŃ": 4154,
      "Replace": 4155,
      "Ġparameters": 4156,
      "SSION": 4157,
      "browser": 4158,
      "Accept": 4159,
      "TL": 4160,
      "connected": 4161,
      "Ġ{$": 4162,
      "proc": 4163,
      "filePath": 4164,
      "Character": 4165,
      "reject": 4166,
      "struction": 4167,
      "CTION": 4168,
      "'_'": 4169,
      "Dist": 4170,
      "Ġattribute": 4171,
      "implements": 4172,
      "Ġgroup": 4173,
      "country": 4174,
      "filtered": 4175,
      "theme": 4176,
      "gle": 4177,
      "Marshal": 4178,
      "illis": 4179,
      "week": 4180,
      "ively": 4181,
      "Ġcommand": 4182,
      "Cons": 4183,
      "pact": 4184,
      "Grid": 4185,
      "dn": 4186,
      "Virtual": 4187,
      "Org": 4188,
      "sep": 4189,
      "Ġmap": 4190,
      "Try": 4191,
      "90": 4192,
      "ĠInternal": 4193,
      "getUser": 4194,
      "des": 4195,
      "alloc": 4196,
      "45": 4197,
      "Ind": 4198,
      "Es": 4199,
      "Operator": 4200,
      "checks": 4201,
      "Filename": 4202,
      "leton": 4203,
      "templates": 4204,
      "Inf": 4205,
      "ison": 4206,
      "ĠAND": 4207,
      "Suppress": 4208,
      "Show": 4209,
      "tables": 4210,
      "Jav": 4211,
      "çĶ": 4212,
      "Ġthrough": 4213,
      "Ġsh": 4214,
      "failure": 4215,
      "either": 4216,
      "ECT": 4217,
      "responding": 4218,
      "livery": 4219,
      "adoc": 4220,
      "ness": 4221,
      "defaultValue": 4222,
      "PA": 4223,
      "channels": 4224,
      "hasNext": 4225,
      "FIEL": 4226,
      "åħ": 4227,
      ".*": 4228,
      "ilt": 4229,
      "Usage": 4230,
      "peat": 4231,
      "ĠFor": 4232,
      "Ġtarget": 4233,
      "incip": 4234,
      "Gateway": 4235,
      "Single": 4236,
      "Private": 4237,
      "tableName": 4238,
      "registered": 4239,
      "lick": 4240,
      "digest": 4241,
      "ecycle": 4242,
      "Ġexp": 4243,
      "Expect": 4244,
      "win": 4245,
      "Man": 4246,
      "inherit": 4247,
      "pick": 4248,
      "foo": 4249,
      "representation": 4250,
      "ied": 4251,
      "shared": 4252,
      "submit": 4253,
      "voice": 4254,
      "disable": 4255,
      "omat": 4256,
      "gest": 4257,
      "Ġsource": 4258,
      "Ġ->": 4259,
      "vocation": 4260,
      "indic": 4261,
      "Equal": 4262,
      "ump": 4263,
      "Ġ'%": 4264,
      "resolver": 4265,
      "PI": 4266,
      "26": 4267,
      "Classes": 4268,
      "colors": 4269,
      "Dispatch": 4270,
      "backup": 4271,
      "Ġint": 4272,
      "Summary": 4273,
      "deep": 4274,
      "Where": 4275,
      "EXT": 4276,
      "Progress": 4277,
      "pd": 4278,
      "Term": 4279,
      "Ġinter": 4280,
      "Ġcontext": 4281,
      "Reflection": 4282,
      "_'": 4283,
      "Font": 4284,
      "FileName": 4285,
      "icro": 4286,
      "Gu": 4287,
      "ensor": 4288,
      "padding": 4289,
      "Br": 4290,
      "Metrics": 4291,
      "CRE": 4292,
      "WithContext": 4293,
      "updates": 4294,
      "library": 4295,
      "lier": 4296,
      "VALID": 4297,
      "Ġoptions": 4298,
      "STRING": 4299,
      "Login": 4300,
      "Ġdif": 4301,
      "subscription": 4302,
      "\".\"": 4303,
      "SSL": 4304,
      "cipient": 4305,
      "Ġprovided": 4306,
      "Consumer": 4307,
      "Mut": 4308,
      "mime": 4309,
      "shop": 4310,
      "Ġpage": 4311,
      "resourceGroupName": 4312,
      "Memory": 4313,
      "optim": 4314,
      "sd": 4315,
      "Deep": 4316,
      "transition": 4317,
      "dicate": 4318,
      "77": 4319,
      "XX": 4320,
      "ires": 4321,
      "cogn": 4322,
      "oauth": 4323,
      "unicode": 4324,
      "setAttribute": 4325,
      "handlers": 4326,
      "seed": 4327,
      "nored": 4328,
      "INFO": 4329,
      "aving": 4330,
      "olders": 4331,
      "nav": 4332,
      "Fr": 4333,
      "Allowed": 4334,
      "QUEST": 4335,
      "generic": 4336,
      "cel": 4337,
      "HEAD": 4338,
      "METHOD": 4339,
      "decor": 4340,
      "Constraints": 4341,
      "'@": 4342,
      "ALSE": 4343,
      "Ġtag": 4344,
      "\\\"\"": 4345,
      "Ġ4": 4346,
      "Updates": 4347,
      "fname": 4348,
      "machine": 4349,
      "pairs": 4350,
      "Codes": 4351,
      "Ġwrite": 4352,
      "gon": 4353,
      "counts": 4354,
      "Binding": 4355,
      "Ġcolumn": 4356,
      "lim": 4357,
      "zeros": 4358,
      "Failure": 4359,
      "mk": 4360,
      "Ċĉĉĉ": 4361,
      "descriptor": 4362,
      "Normal": 4363,
      "standard": 4364,
      "tion": 4365,
      "Ġwhile": 4366,
      "uplicate": 4367,
      "ANCE": 4368,
      "ys": 4369,
      "Ġ'\"": 4370,
      "cording": 4371,
      "Pag": 4372,
      "Price": 4373,
      "Ġinvalid": 4374,
      "appings": 4375,
      "requested": 4376,
      "none": 4377,
      "ifications": 4378,
      "weights": 4379,
      "Processor": 4380,
      "inspect": 4381,
      "removed": 4382,
      "Ġposition": 4383,
      "asc": 4384,
      "parison": 4385,
      "SuppressWarnings": 4386,
      "hostname": 4387,
      "esh": 4388,
      "yy": 4389,
      "DIRECT": 4390,
      "'\"'": 4391,
      "getDefault": 4392,
      "Dev": 4393,
      "views": 4394,
      "??": 4395,
      "Arr": 4396,
      "tax": 4397,
      "plain": 4398,
      "Cookie": 4399,
      "serialized": 4400,
      "fg": 4401,
      "Env": 4402,
      "listeners": 4403,
      "video": 4404,
      "isValid": 4405,
      "ĠTh": 4406,
      "DF": 4407,
      "Formatter": 4408,
      "aunch": 4409,
      "):": 4410,
      "matched": 4411,
      "otherwise": 4412,
      "Rec": 4413,
      "CF": 4414,
      "CA": 4415,
      "fixed": 4416,
      "sources": 4417,
      "Subject": 4418,
      "ĠURL": 4419,
      "Ptr": 4420,
      "Publish": 4421,
      "ather": 4422,
      "creating": 4423,
      "Cert": 4424,
      "Ġconvert": 4425,
      "anges": 4426,
      "exceptions": 4427,
      "rpc": 4428,
      "Implement": 4429,
      "Rect": 4430,
      "Retrieve": 4431,
      "anti": 4432,
      "onical": 4433,
      "geometry": 4434,
      "reduce": 4435,
      "TED": 4436,
      "Ip": 4437,
      "na": 4438,
      "Ġform": 4439,
      "REQUEST": 4440,
      "most": 4441,
      "Ġitem": 4442,
      "notify": 4443,
      "Redirect": 4444,
      "\"{": 4445,
      "ipe": 4446,
      "packages": 4447,
      "mutable": 4448,
      "Ġsee": 4449,
      "calendar": 4450,
      "ond": 4451,
      "Bar": 4452,
      "Lib": 4453,
      "Ġpart": 4454,
      "udit": 4455,
      "xis": 4456,
      "DELETE": 4457,
      "Ġsession": 4458,
      "Nam": 4459,
      "Ġmin": 4460,
      "closed": 4461,
      "arm": 4462,
      "BUG": 4463,
      "Converter": 4464,
      "foreign": 4465,
      "Arch": 4466,
      "$$": 4467,
      "vertex": 4468,
      "FALSE": 4469,
      "tools": 4470,
      "your": 4471,
      "contentType": 4472,
      "bottom": 4473,
      "URE": 4474,
      "\\'": 4475,
      "threshold": 4476,
      "NOTE": 4477,
      "Static": 4478,
      "Payload": 4479,
      "latest": 4480,
      "constant": 4481,
      "radius": 4482,
      "Ġinstead": 4483,
      "their": 4484,
      "Ġcreated": 4485,
      "/\"": 4486,
      "Decimal": 4487,
      "ones": 4488,
      "methodName": 4489,
      "rieves": 4490,
      "ĠFROM": 4491,
      "Ġbytes": 4492,
      "Arn": 4493,
      "Authentication": 4494,
      "Now": 4495,
      "Bag": 4496,
      "havior": 4497,
      "Ġsupported": 4498,
      "Arrays": 4499,
      "authentic": 4500,
      "Changed": 4501,
      "wp": 4502,
      "Ġ_": 4503,
      "ee": 4504,
      "legate": 4505,
      "Ġchange": 4506,
      "ators": 4507,
      "Chunk": 4508,
      "coords": 4509,
      "RA": 4510,
      "car": 4511,
      "formatted": 4512,
      "Filters": 4513,
      "Schedule": 4514,
      "44": 4515,
      "retval": 4516,
      "KeyError": 4517,
      "Yii": 4518,
      "eno": 4519,
      "Ġauth": 4520,
      "aj": 4521,
      "Hook": 4522,
      "Ġloop": 4523,
      "]'": 4524,
      "Activity": 4525,
      "Scal": 4526,
      "/{": 4527,
      "ony": 4528,
      "forward": 4529,
      "Props": 4530,
      "itive": 4531,
      "team": 4532,
      "Comparator": 4533,
      "hist": 4534,
      "price": 4535,
      "rb": 4536,
      "Ġagain": 4537,
      "getString": 4538,
      "Generic": 4539,
      "Authorization": 4540,
      "29": 4541,
      "Ġfields": 4542,
      "Delet": 4543,
      "operations": 4544,
      "Ġi": 4545,
      "Ġtest": 4546,
      "adds": 4547,
      "Ġsingle": 4548,
      "Make": 4549,
      "border": 4550,
      "keyword": 4551,
      "yaml": 4552,
      "Ġlocal": 4553,
      "Partition": 4554,
      "deleted": 4555,
      "priv": 4556,
      "Lookup": 4557,
      "activity": 4558,
      "Available": 4559,
      "etc": 4560,
      "article": 4561,
      "flatten": 4562,
      "Attempt": 4563,
      "BE": 4564,
      "SA": 4565,
      "Dimension": 4566,
      "diag": 4567,
      "Services": 4568,
      "Slice": 4569,
      "ĠĠĠĠĠ": 4570,
      "dirs": 4571,
      "Payment": 4572,
      "argv": 4573,
      "screen": 4574,
      "Deployment": 4575,
      "background": 4576,
      "Ġab": 4577,
      "pto": 4578,
      "Ġmode": 4579,
      "startsWith": 4580,
      "cn": 4581,
      "DEBUG": 4582,
      "å¤": 4583,
      "later": 4584,
      "Ġskip": 4585,
      "Sl": 4586,
      "produ": 4587,
      "numbers": 4588,
      "Ġtrue": 4589,
      "?'": 4590,
      "VM": 4591,
      "getField": 4592,
      "sur": 4593,
      "spe": 4594,
      "Ð»": 4595,
      "Ġoption": 4596,
      "tempor": 4597,
      "Compute": 4598,
      "Series": 4599,
      "Scale": 4600,
      "typ": 4601,
      "Qual": 4602,
      "cheduler": 4603,
      "\\.": 4604,
      "NLS": 4605,
      "TS": 4606,
      "erial": 4607,
      "Aggreg": 4608,
      "Rand": 4609,
      "Track": 4610,
      "Other": 4611,
      "posite": 4612,
      "\"$": 4613,
      "Ġalso": 4614,
      "algorithm": 4615,
      "ĠĠĠĠĠĠĠĠĠĠĠ": 4616,
      "ĊĠĠĠ": 4617,
      "OB": 4618,
      "Javadoc": 4619,
      "oom": 4620,
      "Area": 4621,
      "'__": 4622,
      "Information": 4623,
      "Instances": 4624,
      "Matcher": 4625,
      "versions": 4626,
      "Created": 4627,
      "getResource": 4628,
      "********************************": 4629,
      "pixel": 4630,
      "UND": 4631,
      "Ġresource": 4632,
      "ordered": 4633,
      "segments": 4634,
      "compo": 4635,
      "steps": 4636,
      "userid": 4637,
      "unc": 4638,
      "Cor": 4639,
      "remaining": 4640,
      "nested": 4641,
      "><": 4642,
      "!'": 4643,
      "getRe": 4644,
      "NotNull": 4645,
      "TRUE": 4646,
      "imitive": 4647,
      "Ġlike": 4648,
      "Primary": 4649,
      "MODE": 4650,
      "Warning": 4651,
      "Annotations": 4652,
      "getParent": 4653,
      "Ġinformation": 4654,
      "ifies": 4655,
      "ATTR": 4656,
      "azy": 4657,
      "directly": 4658,
      "OPTION": 4659,
      "kill": 4660,
      "gs": 4661,
      "Loop": 4662,
      "StateException": 4663,
      "MD": 4664,
      "choice": 4665,
      "ables": 4666,
      "pared": 4667,
      "Bounds": 4668,
      "Labels": 4669,
      "Ġparse": 4670,
      "adjust": 4671,
      "layers": 4672,
      "Py": 4673,
      "attachment": 4674,
      "Transfer": 4675,
      "ini": 4676,
      "six": 4677,
      "propri": 4678,
      "Ġapp": 4679,
      "Ġentry": 4680,
      "inv": 4681,
      "raft": 4682,
      "Transport": 4683,
      "aint": 4684,
      "Ġaccess": 4685,
      "Entries": 4686,
      "Ġsupport": 4687,
      "STATE": 4688,
      "Export": 4689,
      "plt": 4690,
      "Ġmem": 4691,
      "incipal": 4692,
      "ilities": 4693,
      "since": 4694,
      "home": 4695,
      "Place": 4696,
      "answer": 4697,
      "getCurrent": 4698,
      "OT": 4699,
      "Ġcopy": 4700,
      "orderBy": 4701,
      "warnings": 4702,
      ";\"": 4703,
      "Ġ==": 4704,
      "getContent": 4705,
      "sult": 4706,
      "APP": 4707,
      "STAR": 4708,
      "flat": 4709,
      "ero": 4710,
      "decl": 4711,
      "Edge": 4712,
      "inator": 4713,
      "emon": 4714,
      "Ġsecond": 4715,
      "Selection": 4716,
      "Google": 4717,
      "eZ": 4718,
      "Std": 4719,
      "Year": 4720,
      "certificate": 4721,
      "Ġfilter": 4722,
      "Owner": 4723,
      "Millis": 4724,
      "marker": 4725,
      "licies": 4726,
      "Ġcontain": 4727,
      "processor": 4728,
      "imation": 4729,
      "31": 4730,
      "INST": 4731,
      "Packet": 4732,
      "rypto": 4733,
      "CESS": 4734,
      "Install": 4735,
      "loads": 4736,
      "Ġcorrect": 4737,
      "imate": 4738,
      "STATUS": 4739,
      "Collections": 4740,
      "cesses": 4741,
      "=%": 4742,
      "geo": 4743,
      "bad": 4744,
      "scroll": 4745,
      "special": 4746,
      "appropri": 4747,
      "fragment": 4748,
      "ĠNone": 4749,
      "Ġ...": 4750,
      "dependencies": 4751,
      "Ġroot": 4752,
      "LOPT": 4753,
      "clause": 4754,
      "ById": 4755,
      "AA": 4756,
      "lict": 4757,
      "History": 4758,
      "Ġwithout": 4759,
      "lint": 4760,
      "Structure": 4761,
      "Tuple": 4762,
      "FIG": 4763,
      "Ġreference": 4764,
      "Ġstream": 4765,
      "ierarch": 4766,
      "Ġiter": 4767,
      "xff": 4768,
      "Setting": 4769,
      "sect": 4770,
      "comments": 4771,
      "promise": 4772,
      "support": 4773,
      "Unsupported": 4774,
      "jobs": 4775,
      "bus": 4776,
      "Exit": 4777,
      "åıĸ": 4778,
      "Ġlevel": 4779,
      "consider": 4780,
      "hip": 4781,
      "tok": 4782,
      "bi": 4783,
      "ci": 4784,
      "Ġservice": 4785,
      "Fn": 4786,
      "ately": 4787,
      "attrib": 4788,
      "destroy": 4789,
      "pg": 4790,
      "plication": 4791,
      "following": 4792,
      "brocade": 4793,
      "PDO": 4794,
      "normalized": 4795,
      "NUM": 4796,
      "activ": 4797,
      "completed": 4798,
      "dependency": 4799,
      "ĠWHERE": 4800,
      "poch": 4801,
      "Ġregister": 4802,
      "alancer": 4803,
      "CURLOPT": 4804,
      "caller": 4805,
      "sin": 4806,
      "Ġarguments": 4807,
      "ignored": 4808,
      "tatus": 4809,
      "categories": 4810,
      "idge": 4811,
      "NG": 4812,
      "LINE": 4813,
      "Criteria": 4814,
      "cells": 4815,
      "Te": 4816,
      "38": 4817,
      "tain": 4818,
      "itespace": 4819,
      "Ġmet": 4820,
      "OUT": 4821,
      "Cmd": 4822,
      "Ġopen": 4823,
      "capt": 4824,
      "Constructor": 4825,
      "Ġneeded": 4826,
      "processed": 4827,
      "sid": 4828,
      "ongo": 4829,
      "DIRECTORY": 4830,
      "Panel": 4831,
      "Ġnames": 4832,
      "combin": 4833,
      "Peer": 4834,
      "Ġj": 4835,
      "ĠRemove": 4836,
      "\"[": 4837,
      "bb": 4838,
      "gers": 4839,
      "Ġkeys": 4840,
      "Jvm": 4841,
      "anit": 4842,
      "redis": 4843,
      "nan": 4844,
      "Ġdown": 4845,
      "Backup": 4846,
      "Points": 4847,
      "needed": 4848,
      "ometh": 4849,
      "ctr": 4850,
      "Ġprevious": 4851,
      "constraints": 4852,
      "Ġstatus": 4853,
      "Opts": 4854,
      "Used": 4855,
      "terms": 4856,
      "FIELD": 4857,
      "zz": 4858,
      "every": 4859,
      "dialog": 4860,
      "ulk": 4861,
      "omething": 4862,
      "/%": 4863,
      "Bool": 4864,
      "Ġtemplate": 4865,
      "authentication": 4866,
      "VAR": 4867,
      "processing": 4868,
      "ĠĠĠĠĠĠ": 4869,
      "mapper": 4870,
      "Ġstore": 4871,
      "åĬ": 4872,
      "Diff": 4873,
      "indexes": 4874,
      "cription": 4875,
      "Ġper": 4876,
      "---": 4877,
      "oo": 4878,
      "39": 4879,
      "pm": 4880,
      "Ġalways": 4881,
      "umul": 4882,
      "shell": 4883,
      "Random": 4884,
      "sequ": 4885,
      "ceed": 4886,
      "Ġim": 4887,
      "Strings": 4888,
      "targets": 4889,
      "icate": 4890,
      "come": 4891,
      "sens": 4892,
      "Ġbuild": 4893,
      "iment": 4894,
      "Asset": 4895,
      "Nullable": 4896,
      "Ġself": 4897,
      "Icon": 4898,
      "oft": 4899,
      "34": 4900,
      "Ġdatabase": 4901,
      "Many": 4902,
      "PL": 4903,
      "pdf": 4904,
      "tracking": 4905,
      "getTable": 4906,
      "Decl": 4907,
      "EObject": 4908,
      "environ": 4909,
      "sleep": 4910,
      "Ġdocument": 4911,
      "ĠÐ": 4912,
      "Converts": 4913,
      "Ġprob": 4914,
      "such": 4915,
      "Ġdelete": 4916,
      "Basic": 4917,
      "coming": 4918,
      "getP": 4919,
      "'&": 4920,
      "dl": 4921,
      "Disk": 4922,
      "=\"'": 4923,
      "Week": 4924,
      "FilePath": 4925,
      "66": 4926,
      "Vars": 4927,
      "READ": 4928,
      "Println": 4929,
      "timer": 4930,
      "rm": 4931,
      "sending": 4932,
      "pur": 4933,
      "recursive": 4934,
      "oriz": 4935,
      "Tab": 4936,
      "Ġsuccess": 4937,
      "CONT": 4938,
      "tz": 4939,
      "Topic": 4940,
      "Ġmissing": 4941,
      "tm": 4942,
      "Trigger": 4943,
      "></": 4944,
      "COMP": 4945,
      "Poly": 4946,
      "Fore": 4947,
      "ç»": 4948,
      "basic": 4949,
      "Ġcallback": 4950,
      "supplied": 4951,
      "fra": 4952,
      "CONFIG": 4953,
      "'\\\\'": 4954,
      "slot": 4955,
      "Commerce": 4956,
      "renderer": 4957,
      "75": 4958,
      "Mask": 4959,
      "many": 4960,
      "Ġtask": 4961,
      ":%": 4962,
      "Worker": 4963,
      "è¡": 4964,
      "representing": 4965,
      "allel": 4966,
      "propertyName": 4967,
      "ãĢ": 4968,
      "Extern": 4969,
      "merged": 4970,
      "################": 4971,
      "isArray": 4972,
      "getPro": 4973,
      "chunks": 4974,
      "family": 4975,
      "sender": 4976,
      "Ġcount": 4977,
      "PUT": 4978,
      "ets": 4979,
      "ands": 4980,
      "getAll": 4981,
      "dc": 4982,
      "Ġsend": 4983,
      "another": 4984,
      "'[": 4985,
      "INTER": 4986,
      "onom": 4987,
      "TAG": 4988,
      "parseInt": 4989,
      "Ġcalled": 4990,
      "mock": 4991,
      "determine": 4992,
      "\",\"": 4993,
      "IllegalStateException": 4994,
      "Machine": 4995,
      "program": 4996,
      "logs": 4997,
      "servers": 4998,
      "kl": 4999,
      "vec": 5000,
      "Ġignore": 5001,
      "StatusCode": 5002,
      "serializer": 5003,
      "escap": 5004,
      "person": 5005,
      "lap": 5006,
      "setValue": 5007,
      "ĠMake": 5008,
      "Fac": 5009,
      "'='": 5010,
      "okies": 5011,
      "adapt": 5012,
      "addAll": 5013,
      "mapped": 5014,
      "LIC": 5015,
      "ficient": 5016,
      "lists": 5017,
      "è®": 5018,
      "Ġ//": 5019,
      "queries": 5020,
      "Listeners": 5021,
      "Evalu": 5022,
      "paign": 5023,
      "Subscription": 5024,
      "rong": 5025,
      "æĪ": 5026,
      "Ġexisting": 5027,
      "predicate": 5028,
      "afe": 5029,
      "tail": 5030,
      "calling": 5031,
      ")\\": 5032,
      "Executor": 5033,
      "urls": 5034,
      "Initialize": 5035,
      "Constant": 5036,
      "BY": 5037,
      "provide": 5038,
      "appropriate": 5039,
      "Ġaddress": 5040,
      "ales": 5041,
      "uages": 5042,
      "Done": 5043,
      "NE": 5044,
      "Amount": 5045,
      "iration": 5046,
      "SubElement": 5047,
      "ale": 5048,
      "Sample": 5049,
      "neighb": 5050,
      "Credentials": 5051,
      "tre": 5052,
      "bra": 5053,
      "Ġbase": 5054,
      "ampl": 5055,
      "Termin": 5056,
      "Skip": 5057,
      "Ġlook": 5058,
      "JECT": 5059,
      "rank": 5060,
      "SESSION": 5061,
      "awserr": 5062,
      "relationship": 5063,
      "500": 5064,
      "'*'": 5065,
      "Vertex": 5066,
      "Draw": 5067,
      "\"--": 5068,
      "dx": 5069,
      "RPC": 5070,
      "ba": 5071,
      "endor": 5072,
      "increment": 5073,
      "Ġevery": 5074,
      "reflection": 5075,
      "Literal": 5076,
      "Buffered": 5077,
      "spect": 5078,
      "axes": 5079,
      "Ġwould": 5080,
      "Ġvariable": 5081,
      "Standard": 5082,
      "ToString": 5083,
      "umes": 5084,
      "Verify": 5085,
      "parsing": 5086,
      "FT": 5087,
      "IgnoreCase": 5088,
      "customer": 5089,
      "Permissions": 5090,
      "FOL": 5091,
      "filled": 5092,
      "EOL": 5093,
      "Pages": 5094,
      "cipher": 5095,
      "Ġelse": 5096,
      "getParameter": 5097,
      "Reset": 5098,
      "tip": 5099,
      "cluding": 5100,
      "Pred": 5101,
      "Ġdone": 5102,
      "sqrt": 5103,
      "den": 5104,
      "Push": 5105,
      "corresponding": 5106,
      "manifest": 5107,
      "æĺ": 5108,
      "stor": 5109,
      "imes": 5110,
      "lt": 5111,
      "ula": 5112,
      "Ġproperties": 5113,
      "dep": 5114,
      "Retry": 5115,
      "roid": 5116,
      "DC": 5117,
      "candidate": 5118,
      "Mail": 5119,
      "RED": 5120,
      "NonNull": 5121,
      "ByteArray": 5122,
      "uff": 5123,
      "xf": 5124,
      "Help": 5125,
      "idual": 5126,
      "annotations": 5127,
      "'ll": 5128,
      "els": 5129,
      "NoSuch": 5130,
      "authorization": 5131,
      "ĠAPI": 5132,
      "Unique": 5133,
      "Span": 5134,
      "Av": 5135,
      "88": 5136,
      "External": 5137,
      ">\\": 5138,
      "escription": 5139,
      "definitions": 5140,
      "ention": 5141,
      "Utility": 5142,
      "Ġsearch": 5143,
      "ĠUse": 5144,
      "built": 5145,
      "AV": 5146,
      "quant": 5147,
      "inc": 5148,
      "Merge": 5149,
      "Ġhapp": 5150,
      "Ġfalse": 5151,
      "Ġelements": 5152,
      "Complete": 5153,
      "*/": 5154,
      "Shared": 5155,
      "DataType": 5156,
      "HEAP": 5157,
      "vl": 5158,
      "tn": 5159,
      "Ġadded": 5160,
      "consist": 5161,
      "ULE": 5162,
      "alf": 5163,
      "Ġavoid": 5164,
      "Dialog": 5165,
      "70": 5166,
      "contexts": 5167,
      "WithServiceResponse": 5168,
      "WithServiceResponseAsync": 5169,
      "MB": 5170,
      "ĠIN": 5171,
      "Linked": 5172,
      "Ġpossible": 5173,
      "issue": 5174,
      "Ġright": 5175,
      "wrapped": 5176,
      "Closure": 5177,
      "SU": 5178,
      "rase": 5179,
      "Ġdifferent": 5180,
      "appro": 5181,
      "ilar": 5182,
      "porter": 5183,
      "LowerCase": 5184,
      "Ġbuffer": 5185,
      "ading": 5186,
      "effect": 5187,
      "GB": 5188,
      "();": 5189,
      "big": 5190,
      "nn": 5191,
      "abilities": 5192,
      "Lines": 5193,
      "si": 5194,
      "Ident": 5195,
      "|=": 5196,
      "wt": 5197,
      "Req": 5198,
      "Ġdate": 5199,
      "pipeline": 5200,
      "DeepCopy": 5201,
      "{}'": 5202,
      "Git": 5203,
      "Serializer": 5204,
      "velope": 5205,
      "walk": 5206,
      "anagement": 5207,
      "Ġtwo": 5208,
      "Ġaction": 5209,
      "Contact": 5210,
      "reads": 5211,
      "Actions": 5212,
      "ĠReturn": 5213,
      "WN": 5214,
      "aries": 5215,
      "monitor": 5216,
      "viders": 5217,
      "rgb": 5218,
      "Ġobjects": 5219,
      "written": 5220,
      "pin": 5221,
      "always": 5222,
      "assignment": 5223,
      "requency": 5224,
      "Locator": 5225,
      "delimiter": 5226,
      "Ġmax": 5227,
      "âĢ": 5228,
      "ClassLoader": 5229,
      "pipe": 5230,
      "strategy": 5231,
      "around": 5232,
      "DR": 5233,
      "iso": 5234,
      "getFile": 5235,
      "EV": 5236,
      "flo": 5237,
      "Ġyour": 5238,
      "}}": 5239,
      "Timer": 5240,
      "Ġrange": 5241,
      "Suffix": 5242,
      "unchecked": 5243,
      "inline": 5244,
      "Elem": 5245,
      "cannot": 5246,
      "canvas": 5247,
      "]*": 5248,
      "Ġbetween": 5249,
      "Background": 5250,
      "workspace": 5251,
      "sat": 5252,
      "phase": 5253,
      "Ġlet": 5254,
      "tpl": 5255,
      "Sym": 5256,
      "Ġallowed": 5257,
      "shard": 5258,
      "containsKey": 5259,
      "placeholder": 5260,
      "FORMAT": 5261,
      "Lif": 5262,
      "Main": 5263,
      "Unexpected": 5264,
      "Ġhttps": 5265,
      "phi": 5266,
      "workflow": 5267,
      "Vari": 5268,
      "ĊĠĠĠĠĠĠĠĠĠĠĠĠĠĠĠĠĠĠĠ": 5269,
      "ints": 5270,
      "\")": 5271,
      "cu": 5272,
      "logical": 5273,
      "phone": 5274,
      "Cursor": 5275,
      "Ġtypes": 5276,
      "configs": 5277,
      "Ġfull": 5278,
      "buff": 5279,
      "START": 5280,
      "ality": 5281,
      "Given": 5282,
      "SY": 5283,
      "compress": 5284,
      "Interrupt": 5285,
      "partic": 5286,
      "Versions": 5287,
      "Ġyet": 5288,
      "saved": 5289,
      "Ġimport": 5290,
      "ctrl": 5291,
      "ĠDo": 5292,
      "Ġold": 5293,
      "Named": 5294,
      "ĠAS": 5295,
      "StringUtils": 5296,
      "vc": 5297,
      "quival": 5298,
      "Card": 5299,
      "WE": 5300,
      "\":\"": 5301,
      "stit": 5302,
      "])": 5303,
      "directories": 5304,
      "Ġerrors": 5305,
      "URCE": 5306,
      "Release": 5307,
      "Migr": 5308,
      "&#": 5309,
      "currently": 5310,
      "Cat": 5311,
      "CLI": 5312,
      "ogram": 5313,
      "59": 5314,
      "86": 5315,
      "Ġrow": 5316,
      "ttl": 5317,
      "cir": 5318,
      "----------------------------------------------------------------": 5319,
      "PROPER": 5320,
      "compatible": 5321,
      "Iss": 5322,
      "Detail": 5323,
      "getOption": 5324,
      "Ġeither": 5325,
      "Users": 5326,
      "dy": 5327,
      "}.": 5328,
      "finished": 5329,
      "Ġbeing": 5330,
      "appendChild": 5331,
      "respond": 5332,
      "Ġthrow": 5333,
      "Geometry": 5334,
      "stage": 5335,
      "(?:": 5336,
      "FC": 5337,
      "Ġhost": 5338,
      "ĠV": 5339,
      "strconv": 5340,
      "PREFIX": 5341,
      "Ġlock": 5342,
      "Ġthese": 5343,
      "distribution": 5344,
      "çĶ¨": 5345,
      "æį": 5346,
      "RES": 5347,
      "ade": 5348,
      "MESS": 5349,
      "Mock": 5350,
      "rans": 5351,
      "precision": 5352,
      "Router": 5353,
      "Ġ>": 5354,
      "formats": 5355,
      "Upper": 5356,
      "gateway": 5357,
      "Currency": 5358,
      "TABLE": 5359,
      "pn": 5360,
      "Iterable": 5361,
      "Removes": 5362,
      "Axis": 5363,
      "Ġoriginal": 5364,
      "Ġreturned": 5365,
      "tl": 5366,
      "Ġfail": 5367,
      "fc": 5368,
      "Na": 5369,
      "AF": 5370,
      "Ġstyle": 5371,
      "Ġresults": 5372,
      "iterable": 5373,
      "adcast": 5374,
      "guide": 5375,
      "Logging": 5376,
      "Ġreplace": 5377,
      "eps": 5378,
      "constants": 5379,
      "different": 5380,
      "ildcard": 5381,
      "37": 5382,
      "ceeded": 5383,
      "aves": 5384,
      "Backend": 5385,
      "Zip": 5386,
      "according": 5387,
      "useful": 5388,
      "ĠIt": 5389,
      "Expected": 5390,
      "Absol": 5391,
      "calc": 5392,
      "cwd": 5393,
      "minimum": 5394,
      "rary": 5395,
      "(...": 5396,
      "restore": 5397,
      "Ġmultiple": 5398,
      "Ġ\"'": 5399,
      "loss": 5400,
      "freq": 5401,
      "Uuid": 5402,
      "references": 5403,
      "Into": 5404,
      "artifact": 5405,
      "Variables": 5406,
      "lab": 5407,
      "Support": 5408,
      "ByName": 5409,
      "annot": 5410,
      "png": 5411,
      "userId": 5412,
      "tle": 5413,
      "Chan": 5414,
      "HashSet": 5415,
      "repeat": 5416,
      "Infof": 5417,
      "anded": 5418,
      "Absolute": 5419,
      "Ġmark": 5420,
      "Ġass": 5421,
      "Ġhttp": 5422,
      "coordinates": 5423,
      "ough": 5424,
      "hide": 5425,
      "eme": 5426,
      "generates": 5427,
      "xa": 5428,
      "clusive": 5429,
      "xb": 5430,
      "Depth": 5431,
      "Ġlink": 5432,
      "parents": 5433,
      "spl": 5434,
      "Ġhash": 5435,
      "Weight": 5436,
      "power": 5437,
      "because": 5438,
      "mc": 5439,
      "Ġsort": 5440,
      "Ġsave": 5441,
      "67": 5442,
      "dns": 5443,
      "toLowerCase": 5444,
      "Regex": 5445,
      "Cancel": 5446,
      "measure": 5447,
      "Bus": 5448,
      "Rad": 5449,
      "getNode": 5450,
      "INSTANCE": 5451,
      "\"'\"": 5452,
      "128": 5453,
      "Visible": 5454,
      "WebAPI": 5455,
      "vance": 5456,
      "Ġwait": 5457,
      "Coordin": 5458,
      "ENTI": 5459,
      "association": 5460,
      "SOURCE": 5461,
      "orizon": 5462,
      "ORDER": 5463,
      "ratio": 5464,
      "ĠX": 5465,
      "Roles": 5466,
      "gets": 5467,
      "choices": 5468,
      "WARN": 5469,
      "Seq": 5470,
      "LL": 5471,
      "chat": 5472,
      "Ġboth": 5473,
      "\\/": 5474,
      "impl": 5475,
      "Ġinfo": 5476,
      "analysis": 5477,
      "equalsIgnoreCase": 5478,
      "Ġtoo": 5479,
      "updat": 5480,
      "åĽ": 5481,
      "Ġwere": 5482,
      "Holder": 5483,
      "seen": 5484,
      "Enable": 5485,
      "assets": 5486,
      "509": 5487,
      "mg": 5488,
      "COUN": 5489,
      "Ġexpected": 5490,
      "bootstrap": 5491,
      "Contents": 5492,
      "detail": 5493,
      "Measure": 5494,
      "Ġ5": 5495,
      "Lists": 5496,
      "cycle": 5497,
      "unpack": 5498,
      "etter": 5499,
      "Zero": 5500,
      "city": 5501,
      "newInstance": 5502,
      "Declaration": 5503,
      "Bits": 5504,
      "actor": 5505,
      "Ġpresent": 5506,
      "....": 5507,
      "Ġpy": 5508,
      "Include": 5509,
      "StackTrace": 5510,
      "getQuery": 5511,
      "being": 5512,
      "Ð²": 5513,
      "Ġwhat": 5514,
      "Ġprint": 5515,
      "connections": 5516,
      "Algorithm": 5517,
      "CSS": 5518,
      "periment": 5519,
      "Seconds": 5520,
      "xid": 5521,
      "prompt": 5522,
      "SIG": 5523,
      "My": 5524,
      "mm": 5525,
      "wik": 5526,
      "SK": 5527,
      "Bro": 5528,
      "Boot": 5529,
      "populate": 5530,
      "Screen": 5531,
      "Marker": 5532,
      "Handlers": 5533,
      "nail": 5534,
      "Align": 5535,
      "middleware": 5536,
      "starting": 5537,
      "Dispatcher": 5538,
      "turn": 5539,
      "writel": 5540,
      "Printf": 5541,
      "Ġstop": 5542,
      "secure": 5543,
      "=\\\"": 5544,
      "Defaults": 5545,
      "bine": 5546,
      "ever": 5547,
      "ks": 5548,
      "illing": 5549,
      "')'": 5550,
      "Ġtop": 5551,
      "kv": 5552,
      "pen": 5553,
      "Cho": 5554,
      "obs": 5555,
      "AUTH": 5556,
      "HEADER": 5557,
      "TableMap": 5558,
      "Quot": 5559,
      "CAC": 5560,
      "confirm": 5561,
      "Must": 5562,
      "CL": 5563,
      "fac": 5564,
      "LOCK": 5565,
      "Pop": 5566,
      "getE": 5567,
      "native": 5568,
      "sock": 5569,
      "ierarchy": 5570,
      "shutdown": 5571,
      "era": 5572,
      "Members": 5573,
      "evaluate": 5574,
      "ByteBuffer": 5575,
      "Separator": 5576,
      "handling": 5577,
      "docker": 5578,
      "micro": 5579,
      "Generated": 5580,
      "serviceName": 5581,
      "follow": 5582,
      "allet": 5583,
      "Platform": 5584,
      "thumb": 5585,
      "locations": 5586,
      "LOB": 5587,
      "addresses": 5588,
      "Ġtransaction": 5589,
      "Trim": 5590,
      "Hy": 5591,
      "TRAN": 5592,
      "Ctx": 5593,
      "IM": 5594,
      "Attachment": 5595,
      "getTime": 5596,
      "æĹ": 5597,
      "creation": 5598,
      "ao": 5599,
      "Resolve": 5600,
      "white": 5601,
      "CHAR": 5602,
      "acl": 5603,
      "Ġ{}'": 5604,
      "Ðº": 5605,
      "onomy": 5606,
      "fw": 5607,
      "å¯": 5608,
      "Patch": 5609,
      "jar": 5610,
      "alert": 5611,
      "Branch": 5612,
      "Ġattributes": 5613,
      "receiver": 5614,
      "[^": 5615,
      "sections": 5616,
      "Blocks": 5617,
      "rain": 5618,
      "Translation": 5619,
      "eq": 5620,
      "ez": 5621,
      "sr": 5622,
      "Ġrece": 5623,
      "clip": 5624,
      "404": 5625,
      "DESC": 5626,
      "Bot": 5627,
      "necessary": 5628,
      "general": 5629,
      "UST": 5630,
      "Ġlimit": 5631,
      "Ġo": 5632,
      "49": 5633,
      "MAR": 5634,
      "Collector": 5635,
      "ĠK": 5636,
      "wire": 5637,
      "semb": 5638,
      "Ġcustom": 5639,
      "Using": 5640,
      "1024": 5641,
      "Ġleast": 5642,
      "SQLException": 5643,
      "front": 5644,
      "Click": 5645,
      "Rest": 5646,
      "Ġcontains": 5647,
      "timezone": 5648,
      "Encoder": 5649,
      "isters": 5650,
      "ä»¶": 5651,
      "Ġoffset": 5652,
      "Ġres": 5653,
      "Ġnodes": 5654,
      "Renderer": 5655,
      "ict": 5656,
      "extended": 5657,
      "needs": 5658,
      "MESSAGE": 5659,
      "temporary": 5660,
      "ä½": 5661,
      "don": 5662,
      "Sec": 5663,
      "writeln": 5664,
      "illi": 5665,
      "Gen": 5666,
      "bc": 5667,
      "Drop": 5668,
      "newValue": 5669,
      "èİ": 5670,
      "NextToken": 5671,
      "Ġnothing": 5672,
      "MIT": 5673,
      "OAuth": 5674,
      "omatically": 5675,
      "executor": 5676,
      "Ġotherwise": 5677,
      "alance": 5678,
      "outer": 5679,
      "Ġview": 5680,
      "takes": 5681,
      "Ġcharacter": 5682,
      "èİ·": 5683,
      "dims": 5684,
      "Health": 5685,
      "vt": 5686,
      "focus": 5687,
      "maps": 5688,
      "Ġus": 5689,
      "ssh": 5690,
      "BASE": 5691,
      "mx": 5692,
      "å¼": 5693,
      "getter": 5694,
      "kb": 5695,
      "assigned": 5696,
      "NewErr": 5697,
      "Ġstill": 5698,
      "SUB": 5699,
      "Ġgot": 5700,
      "../": 5701,
      "rotation": 5702,
      "rev": 5703,
      "atype": 5704,
      "ga": 5705,
      "gments": 5706,
      "LAB": 5707,
      "KEN": 5708,
      "recipient": 5709,
      "Monitor": 5710,
      "Lat": 5711,
      "Shop": 5712,
      "Ġchild": 5713,
      "FUN": 5714,
      "Tasks": 5715,
      "04": 5716,
      "outputs": 5717,
      "äº": 5718,
      "what": 5719,
      "organization": 5720,
      "Ġ(%": 5721,
      "MetaData": 5722,
      "findBy": 5723,
      "separ": 5724,
      "LIST": 5725,
      "Syntax": 5726,
      "Tick": 5727,
      "complex": 5728,
      "Delay": 5729,
      "edException": 5730,
      "Dependency": 5731,
      "instead": 5732,
      "Archive": 5733,
      "Reser": 5734,
      "claim": 5735,
      "(...)\"": 5736,
      "Begin": 5737,
      "Ġpr": 5738,
      "Ġbased": 5739,
      "istic": 5740,
      "Ġknow": 5741,
      "createElement": 5742,
      "Records": 5743,
      "keywords": 5744,
      "UPDATE": 5745,
      "Predicate": 5746,
      "æĸĩ": 5747,
      "quare": 5748,
      "refs": 5749,
      "bg": 5750,
      "Ġ&": 5751,
      "SPACE": 5752,
      "Ġkeep": 5753,
      "converter": 5754,
      "Clause": 5755,
      "Ġprefix": 5756,
      "sess": 5757,
      "ACTION": 5758,
      "ProtocolMarshaller": 5759,
      "getMethod": 5760,
      "integr": 5761,
      "Ñĥ": 5762,
      "NewErrParam": 5763,
      "Tri": 5764,
      "zoom": 5765,
      "Ensure": 5766,
      "striction": 5767,
      "PRI": 5768,
      "revision": 5769,
      "solution": 5770,
      "Ġway": 5771,
      "plus": 5772,
      "detect": 5773,
      "TLS": 5774,
      "Ġurl": 5775,
      "Ġleft": 5776,
      "}\\": 5777,
      "Ġsystem": 5778,
      "getContext": 5779,
      "ctrine": 5780,
      "æī": 5781,
      "seek": 5782,
      "ashboard": 5783,
      "aging": 5784,
      "describe": 5785,
      "Article": 5786,
      "maj": 5787,
      "Artifact": 5788,
      "expires": 5789,
      "arrow": 5790,
      "getService": 5791,
      "grammar": 5792,
      "pet": 5793,
      "Js": 5794,
      "hosts": 5795,
      "FIN": 5796,
      "dimensions": 5797,
      "cursively": 5798,
      "received": 5799,
      "GRO": 5800,
      "cart": 5801,
      "flux": 5802,
      "65": 5803,
      "aa": 5804,
      "expire": 5805,
      "callbacks": 5806,
      "Contains": 5807,
      "pts": 5808,
      "Origin": 5809,
      "={": 5810,
      "Foreign": 5811,
      "*=": 5812,
      "Hex": 5813,
      "Ġclose": 5814,
      "Produ": 5815,
      "Ġdepend": 5816,
      "aff": 5817,
      "Ġinclude": 5818,
      "xe": 5819,
      "Ġcontainer": 5820,
      "encrypted": 5821,
      "comparison": 5822,
      "ContentType": 5823,
      "Ġfollowing": 5824,
      "igation": 5825,
      "TOKEN": 5826,
      "Team": 5827,
      "decimal": 5828,
      "lying": 5829,
      "vertices": 5830,
      "audio": 5831,
      "Nav": 5832,
      "les": 5833,
      "arc": 5834,
      "cnt": 5835,
      "xpath": 5836,
      "player": 5837,
      "ĠNote": 5838,
      "ascript": 5839,
      "addition": 5840,
      "digit": 5841,
      "evt": 5842,
      "getEntity": 5843,
      "cid": 5844,
      "IST": 5845,
      "CREATE": 5846,
      "Ġmight": 5847,
      "FOLLOW": 5848,
      "entrySet": 5849,
      "ents": 5850,
      "assoc": 5851,
      "arrays": 5852,
      "inside": 5853,
      "voc": 5854,
      "ially": 5855,
      "Real": 5856,
      "floor": 5857,
      "ONE": 5858,
      "xc": 5859,
      "completion": 5860,
      "replacement": 5861,
      "veloper": 5862,
      "tls": 5863,
      "pho": 5864,
      "patterns": 5865,
      "elf": 5866,
      "Ġhandler": 5867,
      "EOF": 5868,
      "delet": 5869,
      "Sto": 5870,
      "FIL": 5871,
      "Priority": 5872,
      "sigma": 5873,
      "Cam": 5874,
      "gene": 5875,
      "doesn": 5876,
      "._": 5877,
      "elect": 5878,
      "disabled": 5879,
      "adow": 5880,
      "Conversion": 5881,
      "could": 5882,
      "ĠUpdate": 5883,
      "Selected": 5884,
      "aliases": 5885,
      "Ð¼": 5886,
      "transfer": 5887,
      "ensity": 5888,
      "pat": 5889,
      "Ty": 5890,
      "æŀ": 5891,
      "IPv": 5892,
      "getObject": 5893,
      "dbc": 5894,
      "Ġdid": 5895,
      "Temp": 5896,
      "Ġuntil": 5897,
      "ango": 5898,
      "orld": 5899,
      "subscribe": 5900,
      "æł": 5901,
      "groupId": 5902,
      "modify": 5903,
      "includes": 5904,
      "nl": 5905,
      "icode": 5906,
      "Balancer": 5907,
      "mix": 5908,
      "deg": 5909,
      "Immutable": 5910,
      "SHA": 5911,
      "ols": 5912,
      "LED": 5913,
      "usters": 5914,
      "pp": 5915,
      "aggregate": 5916,
      "Organization": 5917,
      "Ġcharacters": 5918,
      "collections": 5919,
      "Transformer": 5920,
      "positive": 5921,
      "legend": 5922,
      "REF": 5923,
      "xFF": 5924,
      "getResponse": 5925,
      "fallback": 5926,
      "AttributeError": 5927,
      "////////////////////////////////": 5928,
      "pear": 5929,
      "Distance": 5930,
      "orizontal": 5931,
      "ITH": 5932,
      "oll": 5933,
      "posed": 5934,
      "etailed": 5935,
      "Fixed": 5936,
      "Ġneeds": 5937,
      "styles": 5938,
      "Clean": 5939,
      "theta": 5940,
      "ancell": 5941,
      "stub": 5942,
      "Zend": 5943,
      "cost": 5944,
      "tar": 5945,
      "Annot": 5946,
      "Generates": 5947,
      "aler": 5948,
      "filesystem": 5949,
      "Workflow": 5950,
      "Prepare": 5951,
      "frames": 5952,
      "Void": 5953,
      "Present": 5954,
      "\"`": 5955,
      "05": 5956,
      "iness": 5957,
      "tog": 5958,
      "Retrieves": 5959,
      "panel": 5960,
      "elong": 5961,
      "Move": 5962,
      "nonce": 5963,
      "ism": 5964,
      "Factor": 5965,
      "places": 5966,
      "ACT": 5967,
      "REST": 5968,
      "decoded": 5969,
      "Excel": 5970,
      "Extra": 5971,
      "compact": 5972,
      "writes": 5973,
      "ä¸Ģ": 5974,
      "Editor": 5975,
      "room": 5976,
      "Matches": 5977,
      "cpu": 5978,
      "getX": 5979,
      "Geo": 5980,
      "setName": 5981,
      "caseIfc": 5982,
      "-'": 5983,
      "voked": 5984,
      "Walk": 5985,
      "GR": 5986,
      "nder": 5987,
      "lev": 5988,
      "Shape": 5989,
      "getCode": 5990,
      "Finish": 5991,
      "Username": 5992,
      "LAG": 5993,
      "mesh": 5994,
      "INVALID": 5995,
      "Person": 5996,
      "aps": 5997,
      "hr": 5998,
      "Configure": 5999,
      "singleton": 6000,
      "closure": 6001,
      "Tax": 6002,
      "sib": 6003,
      "Parses": 6004,
      "positions": 6005,
      "Running": 6006,
      "-%": 6007,
      "Functions": 6008,
      "Border": 6009,
      "finder": 6010,
      "sanit": 6011,
      "reak": 6012,
      "Clear": 6013,
      "statusCode": 6014,
      "Called": 6015,
      "ĠOnly": 6016,
      "seto": 6017,
      "Association": 6018,
      "Lex": 6019,
      "lyph": 6020,
      "å®ļ": 6021,
      "BR": 6022,
      "Tw": 6023,
      "æĺ¯": 6024,
      "Tile": 6025,
      "perm": 6026,
      "ested": 6027,
      "StringBuffer": 6028,
      "started": 6029,
      "åŃĹ": 6030,
      "TableName": 6031,
      "ailability": 6032,
      "Ġdisable": 6033,
      "Vol": 6034,
      "hparams": 6035,
      "Fragment": 6036,
      "contract": 6037,
      "Master": 6038,
      "tart": 6039,
      "datas": 6040,
      "ACL": 6041,
      "Tables": 6042,
      "Ġabout": 6043,
      "Ġmeans": 6044,
      "responses": 6045,
      "checksum": 6046,
      "Ġrunning": 6047,
      "margin": 6048,
      "otherlv": 6049,
      "Console": 6050,
      "47": 6051,
      "Scroll": 6052,
      "MAP": 6053,
      "Ġremoved": 6054,
      "},": 6055,
      "Ġzero": 6056,
      "],": 6057,
      "javax": 6058,
      "epoch": 6059,
      "quivalent": 6060,
      "FILTER": 6061,
      "obtain": 6062,
      "anchor": 6063,
      "][": 6064,
      "NODE": 6065,
      "PublicKey": 6066,
      "Ġref": 6067,
      "setopt": 6068,
      "Revision": 6069,
      "Links": 6070,
      "migration": 6071,
      "blue": 6072,
      "statistics": 6073,
      "readable": 6074,
      "lifecycle": 6075,
      "statements": 6076,
      "PORT": 6077,
      "\"\\\"": 6078,
      "400": 6079,
      "Ġbyte": 6080,
      "CONN": 6081,
      "routing": 6082,
      "Visitor": 6083,
      "LY": 6084,
      "Download": 6085,
      "Ġdet": 6086,
      "deployment": 6087,
      "dumps": 6088,
      "Compare": 6089,
      "Sol": 6090,
      "èİ·åıĸ": 6091,
      "currentTime": 6092,
      "working": 6093,
      "deploy": 6094,
      "Flush": 6095,
      ":\\": 6096,
      "Notify": 6097,
      "apsed": 6098,
      "compressed": 6099,
      "black": 6100,
      "pred": 6101,
      "devices": 6102,
      "PROPERTY": 6103,
      "Xbase": 6104,
      "take": 6105,
      "pology": 6106,
      "DEX": 6107,
      "lots": 6108,
      "58": 6109,
      "pie": 6110,
      "Ġmo": 6111,
      "mid": 6112,
      "DER": 6113,
      "specify": 6114,
      "atal": 6115,
      "Setup": 6116,
      "LEFT": 6117,
      "dynamic": 6118,
      "getProc": 6119,
      "inf": 6120,
      "getConnection": 6121,
      "apps": 6122,
      "Contexts": 6123,
      "getText": 6124,
      "Assignment": 6125,
      "submission": 6126,
      "here": 6127,
      "syn": 6128,
      "'/^": 6129,
      "authorized": 6130,
      "Ġensure": 6131,
      "ilation": 6132,
      "lc": 6133,
      "Encryption": 6134,
      "heet": 6135,
      "wa": 6136,
      "ipv": 6137,
      "07": 6138,
      "Feed": 6139,
      "ring": 6140,
      "CACHE": 6141,
      "getProcAddr": 6142,
      "Ġport": 6143,
      "Ġitems": 6144,
      "getColumn": 6145,
      "AG": 6146,
      "NGTH": 6147,
      "ado": 6148,
      "listen": 6149,
      "encoder": 6150,
      "exact": 6151,
      "'#'": 6152,
      "FE": 6153,
      "Ġqueue": 6154,
      "Fault": 6155,
      "ectors": 6156,
      "allows": 6157,
      "altern": 6158,
      "WARNING": 6159,
      "populated": 6160,
      "syntax": 6161,
      "converted": 6162,
      "Nonnull": 6163,
      "ulation": 6164,
      "locales": 6165,
      "Ġhappen": 6166,
      "Rem": 6167,
      "Ã©": 6168,
      "FUNCTION": 6169,
      "hdr": 6170,
      "Ġvar": 6171,
      "setParameter": 6172,
      "Ġinsert": 6173,
      "Country": 6174,
      "Updated": 6175,
      "ike": 6176,
      "LENGTH": 6177,
      "96": 6178,
      "license": 6179,
      "installed": 6180,
      "successfully": 6181,
      "Ġchanged": 6182,
      "deferred": 6183,
      "decrypt": 6184,
      "Scheme": 6185,
      "wx": 6186,
      "dro": 6187,
      "boundary": 6188,
      "wards": 6189,
      "Css": 6190,
      "Ġlater": 6191,
      "etype": 6192,
      "JAX": 6193,
      "Ġdest": 6194,
      "levels": 6195,
      "Div": 6196,
      "Dom": 6197,
      "fid": 6198,
      "08": 6199,
      "Customer": 6200,
      "issues": 6201,
      "parallel": 6202,
      "pull": 6203,
      "lineno": 6204,
      "ä¸º": 6205,
      "todo": 6206,
      "mot": 6207,
      "srv": 6208,
      "DataSource": 6209,
      "Deletes": 6210,
      "mysql": 6211,
      "Chart": 6212,
      "Direction": 6213,
      "ALI": 6214,
      "cross": 6215,
      "95": 6216,
      "languages": 6217,
      "Entities": 6218,
      "Ġexpression": 6219,
      "ROOT": 6220,
      "nable": 6221,
      "Ġwhether": 6222,
      "Ġperform": 6223,
      "rename": 6224,
      "Sim": 6225,
      "subprocess": 6226,
      "ili": 6227,
      "stringify": 6228,
      "Addresses": 6229,
      "Decoder": 6230,
      "ALS": 6231,
      "OwnProperty": 6232,
      "ARR": 6233,
      "Supported": 6234,
      "overwrite": 6235,
      "Authentic": 6236,
      "ctypes": 6237,
      "crease": 6238,
      "ailing": 6239,
      "bins": 6240,
      "plural": 6241,
      "poll": 6242,
      "health": 6243,
      "Components": 6244,
      "Ġwithin": 6245,
      "Ġchannel": 6246,
      "spa": 6247,
      "va": 6248,
      "spaces": 6249,
      "live": 6250,
      "Ġpost": 6251,
      "photo": 6252,
      "inger": 6253,
      "Require": 6254,
      "More": 6255,
      "requires": 6256,
      "olation": 6257,
      "ranges": 6258,
      "Ġtheir": 6259,
      "repr": 6260,
      "slash": 6261,
      "COUNT": 6262,
      "mediate": 6263,
      "literal": 6264,
      "included": 6265,
      "locator": 6266,
      "reshape": 6267,
      "ADD": 6268,
      "Modify": 6269,
      "å½": 6270,
      "Ġnamespace": 6271,
      "translations": 6272,
      "Transition": 6273,
      "ĠUn": 6274,
      "Invocation": 6275,
      "DataFrame": 6276,
      "GLOB": 6277,
      "abort": 6278,
      "errs": 6279,
      "Refresh": 6280,
      "Ġcolumns": 6281,
      "ä¸ª": 6282,
      "beat": 6283,
      "arning": 6284,
      "resolution": 6285,
      "EventListener": 6286,
      "\"</": 6287,
      "ium": 6288,
      "qs": 6289,
      "Replication": 6290,
      "cmp": 6291,
      "leaf": 6292,
      "getElement": 6293,
      "Workspace": 6294,
      "cookies": 6295,
      "OIN": 6296,
      "Ġpackage": 6297,
      "Ġspace": 6298,
      "ldap": 6299,
      "SECON": 6300,
      "grant": 6301,
      "sentence": 6302,
      "Connector": 6303,
      "Reply": 6304,
      "');": 6305,
      "negative": 6306,
      "'`": 6307,
      "Hist": 6308,
      "Ġattempt": 6309,
      "embedded": 6310,
      "\"#": 6311,
      "enar": 6312,
      "conflict": 6313,
      "uggest": 6314,
      "cleanup": 6315,
      "Changes": 6316,
      "})": 6317,
      "endswith": 6318,
      "getB": 6319,
      "Mount": 6320,
      "roke": 6321,
      "Multiple": 6322,
      "Ġimplement": 6323,
      "hi": 6324,
      "VICE": 6325,
      "ceptor": 6326,
      "crypto": 6327,
      "Deleted": 6328,
      "iry": 6329,
      "Ġjob": 6330,
      "Ġshow": 6331,
      "getLocal": 6332,
      "regexp": 6333,
      "prior": 6334,
      "ulate": 6335,
      "Definitions": 6336,
      "Super": 6337,
      "EVENT": 6338,
      "Shard": 6339,
      "03": 6340,
      "Jobs": 6341,
      "game": 6342,
      "mass": 6343,
      "UNI": 6344,
      "BagConstraints": 6345,
      "resize": 6346,
      "fh": 6347,
      "classname": 6348,
      "desired": 6349,
      "Closed": 6350,
      "Equ": 6351,
      "coe": 6352,
      "Ġstr": 6353,
      "Ġapplication": 6354,
      "bindings": 6355,
      "hooks": 6356,
      "Managed": 6357,
      "57": 6358,
      "Contin": 6359,
      "compiled": 6360,
      "supports": 6361,
      "klass": 6362,
      "æİ": 6363,
      "Ship": 6364,
      "mouse": 6365,
      "Off": 6366,
      "SV": 6367,
      "sence": 6368,
      "Relationship": 6369,
      "capture": 6370,
      "against": 6371,
      "ka": 6372,
      "ancellation": 6373,
      "FLAG": 6374,
      "Sur": 6375,
      "Ġthread": 6376,
      "ç½": 6377,
      "crete": 6378,
      "qa": 6379,
      "ises": 6380,
      "ĠNOT": 6381,
      "least": 6382,
      "formed": 6383,
      "-\\": 6384,
      "uman": 6385,
      "got": 6386,
      "Final": 6387,
      "Sent": 6388,
      "returning": 6389,
      "ably": 6390,
      "reserved": 6391,
      "ĉĉĉĉ": 6392,
      "lastic": 6393,
      "backtracking": 6394,
      "plica": 6395,
      "executed": 6396,
      "Score": 6397,
      "chrom": 6398,
      "CFG": 6399,
      "major": 6400,
      "ascii": 6401,
      "Ġbit": 6402,
      "reserve": 6403,
      "97": 6404,
      "Ġlong": 6405,
      "ErrInvalid": 6406,
      "xd": 6407,
      "Extensions": 6408,
      "xs": 6409,
      "gy": 6410,
      "æį®": 6411,
      "Ð¿": 6412,
      "clock": 6413,
      "appear": 6414,
      "Ġspecific": 6415,
      "izable": 6416,
      "'?'": 6417,
      "detailed": 6418,
      "dian": 6419,
      "Priv": 6420,
      "[\\": 6421,
      "68": 6422,
      "MT": 6423,
      "Prob": 6424,
      "helpers": 6425,
      "orders": 6426,
      "framework": 6427,
      "crop": 6428,
      "attached": 6429,
      "Ġonce": 6430,
      "ivers": 6431,
      "RIP": 6432,
      "made": 6433,
      "gative": 6434,
      "Processing": 6435,
      "sem": 6436,
      "orth": 6437,
      "Ġvariables": 6438,
      "Ġbody": 6439,
      "featureID": 6440,
      "closing": 6441,
      "DT": 6442,
      "Submit": 6443,
      "HttpServlet": 6444,
      "izing": 6445,
      "SL": 6446,
      "Ġgenerate": 6447,
      "OM": 6448,
      "tensor": 6449,
      "Registration": 6450,
      "ĠFind": 6451,
      "figure": 6452,
      "predict": 6453,
      "attempts": 6454,
      "FieldName": 6455,
      "adj": 6456,
      "uest": 6457,
      "star": 6458,
      "|'": 6459,
      "tor": 6460,
      "agraph": 6461,
      "Ġflag": 6462,
      "getF": 6463,
      "Mer": 6464,
      "nr": 6465,
      "loading": 6466,
      "Redis": 6467,
      "war": 6468,
      "interfaces": 6469,
      "Logs": 6470,
      "Ġrequested": 6471,
      "pow": 6472,
      "ATTRI": 6473,
      "ãĢĤ": 6474,
      "å°": 6475,
      "Ġinteger": 6476,
      "digits": 6477,
      "dispatcher": 6478,
      "Ġman": 6479,
      "åº": 6480,
      "HttpRequest": 6481,
      "Contract": 6482,
      "indiv": 6483,
      "Break": 6484,
      "Ġoff": 6485,
      "DD": 6486,
      "'{}": 6487,
      "andsh": 6488,
      "CHAN": 6489,
      "\"#{": 6490,
      "locate": 6491,
      "Sm": 6492,
      "UTC": 6493,
      "touch": 6494,
      "ĠError": 6495,
      "MPTY": 6496,
      "getSession": 6497,
      "ARRAY": 6498,
      "lr": 6499,
      "ĠNot": 6500,
      "____": 6501,
      "SSH": 6502,
      "activate": 6503,
      "Ġnever": 6504,
      "Ġisn": 6505,
      "ĠAl": 6506,
      "deserialize": 6507,
      "Ġextension": 6508,
      "means": 6509,
      "Persistence": 6510,
      "delegate": 6511,
      "share": 6512,
      "etermines": 6513,
      "mkdir": 6514,
      "\"{$": 6515,
      "canonical": 6516,
      "+'": 6517,
      "capacity": 6518,
      "managed": 6519,
      "Capacity": 6520,
      "ned": 6521,
      "urlen": 6522,
      "Compiler": 6523,
      "Models": 6524,
      "la": 6525,
      "unsafe": 6526,
      "ird": 6527,
      "asket": 6528,
      "hit": 6529,
      "DNS": 6530,
      "wg": 6531,
      "YANG": 6532,
      "threads": 6533,
      "Pipeline": 6534,
      "Reason": 6535,
      "gol": 6536,
      "Ġentity": 6537,
      "hasOwnProperty": 6538,
      "Stmt": 6539,
      "retrie": 6540,
      "Routes": 6541,
      "Reads": 6542,
      "riterion": 6543,
      "consume": 6544,
      "AST": 6545,
      "CC": 6546,
      "]{": 6547,
      "parentNode": 6548,
      "éĢ": 6549,
      "eres": 6550,
      "urnal": 6551,
      "bon": 6552,
      "alg": 6553,
      "initialized": 6554,
      "eep": 6555,
      "Ñı": 6556,
      "izations": 6557,
      "explicit": 6558,
      "getLogger": 6559,
      "urlencode": 6560,
      "uous": 6561,
      "escaped": 6562,
      "pars": 6563,
      "amma": 6564,
      "svc": 6565,
      "Ordered": 6566,
      "RuntimeError": 6567,
      "Ġhow": 6568,
      "blank": 6569,
      "Ġdisplay": 6570,
      "polygon": 6571,
      "mv": 6572,
      "Tempor": 6573,
      "mediately": 6574,
      "orient": 6575,
      "tagName": 6576,
      "Ġreturns": 6577,
      "ĠĠĠĠĠĠĠĠĠĠĠĠĠĠĠ": 6578,
      "oth": 6579,
      "minutes": 6580,
      "flash": 6581,
      "rsion": 6582,
      "exchange": 6583,
      "Ġclean": 6584,
      "TES": 6585,
      "published": 6586,
      "Ġoperation": 6587,
      "Ġnecessary": 6588,
      "Debugf": 6589,
      "Credential": 6590,
      "Rot": 6591,
      "phrase": 6592,
      "Phone": 6593,
      "commun": 6594,
      "oring": 6595,
      "Ġanother": 6596,
      "There": 6597,
      "plicit": 6598,
      "Afp": 6599,
      "rollback": 6600,
      "Round": 6601,
      "scores": 6602,
      "Ġabove": 6603,
      "lid": 6604,
      "qb": 6605,
      "åĮ": 6606,
      "9999": 6607,
      "getMax": 6608,
      "åľ": 6609,
      "General": 6610,
      "LD": 6611,
      "Threshold": 6612,
      "strument": 6613,
      "ua": 6614,
      "NONE": 6615,
      "decorator": 6616,
      "ram": 6617,
      "Spl": 6618,
      "Units": 6619,
      "namespaces": 6620,
      "COLUM": 6621,
      "hours": 6622,
      "TypeReference": 6623,
      "Qt": 6624,
      "Delivery": 6625,
      "ysical": 6626,
      "estim": 6627,
      "...\"": 6628,
      "relations": 6629,
      "Ġbelow": 6630,
      "Charset": 6631,
      "ored": 6632,
      "gc": 6633,
      "Subnet": 6634,
      "\"]": 6635,
      "Oxid": 6636,
      "Ġlines": 6637,
      "including": 6638,
      "USE": 6639,
      "Ġsrc": 6640,
      "Cost": 6641,
      "strong": 6642,
      "magic": 6643,
      "Decor": 6644,
      "ĠNow": 6645,
      "makes": 6646,
      "SAR": 6647,
      "EMPTY": 6648,
      "Dataset": 6649,
      "LOAD": 6650,
      "06": 6651,
      "LAY": 6652,
      "Ops": 6653,
      "Leg": 6654,
      "peak": 6655,
      "WORD": 6656,
      "States": 6657,
      "userAgent": 6658,
      "Since": 6659,
      "wiki": 6660,
      "ittle": 6661,
      "eg": 6662,
      "ORI": 6663,
      "bulk": 6664,
      "Original": 6665,
      "Blob": 6666,
      "------------": 6667,
      "pretty": 6668,
      "lik": 6669,
      "zen": 6670,
      "Does": 6671,
      "Modules": 6672,
      "Aut": 6673,
      "TypeName": 6674,
      "URN": 6675,
      "iteration": 6676,
      "completes": 6677,
      "deepcopy": 6678,
      "dm": 6679,
      "tate": 6680,
      "ORM": 6681,
      "Inv": 6682,
      "unlock": 6683,
      "bounding": 6684,
      "these": 6685,
      "Ġwrap": 6686,
      "SM": 6687,
      "interpol": 6688,
      "ante": 6689,
      "Ġevents": 6690,
      "ags": 6691,
      "Ġdr": 6692,
      "ether": 6693,
      "Repo": 6694,
      "Words": 6695,
      "...'": 6696,
      "Callable": 6697,
      "Src": 6698,
      "ç½®": 6699,
      "CD": 6700,
      "vendor": 6701,
      "receive": 6702,
      "42": 6703,
      "Pk": 6704,
      "High": 6705,
      "Deprecated": 6706,
      "would": 6707,
      "Ġchanges": 6708,
      "Ġunder": 6709,
      "Ġmetadata": 6710,
      "registration": 6711,
      "GROUP": 6712,
      "pip": 6713,
      "MOD": 6714,
      "ĠOther": 6715,
      "56": 6716,
      "IR": 6717,
      "lb": 6718,
      "amps": 6719,
      "reat": 6720,
      "sf": 6721,
      "}:": 6722,
      "__'": 6723,
      "Sig": 6724,
      "QueryBuilder": 6725,
      "Ġcomponent": 6726,
      "green": 6727,
      "NaN": 6728,
      "fq": 6729,
      "Fill": 6730,
      "GL": 6731,
      "Bootstrap": 6732,
      "subnet": 6733,
      "Afplib": 6734,
      "band": 6735,
      "crit": 6736,
      "PK": 6737,
      "Old": 6738,
      "small": 6739,
      "AfplibPackage": 6740,
      "Ð´": 6741,
      "orph": 6742,
      "arty": 6743,
      "JSONObject": 6744,
      "Ġword": 6745,
      "terminal": 6746,
      "intersect": 6747,
      "ips": 6748,
      "Sheet": 6749,
      "training": 6750,
      "Pending": 6751,
      "entire": 6752,
      "Encrypt": 6753,
      "golang": 6754,
      "columnName": 6755,
      "Ker": 6756,
      "OBJECT": 6757,
      "dp": 6758,
      "Fire": 6759,
      "union": 6760,
      "javascript": 6761,
      "~~": 6762,
      "CONTENT": 6763,
      "DAY": 6764,
      "sTo": 6765,
      "GHT": 6766,
      "Principal": 6767,
      "åĨ": 6768,
      "pw": 6769,
      "lems": 6770,
      "Ġsection": 6771,
      "CmsResource": 6772,
      "Ġpattern": 6773,
      "ipher": 6774,
      "iform": 6775,
      "BER": 6776,
      "addChild": 6777,
      "Ġsetting": 6778,
      "crumb": 6779,
      "ivot": 6780,
      "Scaling": 6781,
      "+)": 6782,
      "Percent": 6783,
      "Ġequal": 6784,
      "Assertion": 6785,
      "Ġduring": 6786,
      "Modifier": 6787,
      "Esales": 6788,
      "OxidEsales": 6789,
      "fine": 6790,
      "ä¸į": 6791,
      "EM": 6792,
      "Program": 6793,
      "ĠFirst": 6794,
      "'(": 6795,
      "removes": 6796,
      "Distribution": 6797,
      "Ġdeleted": 6798,
      "Compile": 6799,
      "esc": 6800,
      "Ġconnect": 6801,
      "æĮ": 6802,
      "46": 6803,
      "?\"": 6804,
      "Endian": 6805,
      "Ġeven": 6806,
      "Ġlocation": 6807,
      "Previous": 6808,
      "Related": 6809,
      "ĠY": 6810,
      "ench": 6811,
      "setProperty": 6812,
      "180": 6813,
      "Stage": 6814,
      "Hub": 6815,
      "considered": 6816,
      "trunc": 6817,
      "Ġ\\\"": 6818,
      "errno": 6819,
      "Ġrequire": 6820,
      "Ġstack": 6821,
      "\"{}": 6822,
      "encryption": 6823,
      "cancellation": 6824,
      "å¯¹": 6825,
      "gate": 6826,
      "Finder": 6827,
      "brevi": 6828,
      "Indent": 6829,
      "pods": 6830,
      "Cfg": 6831,
      "Ġpoints": 6832,
      "Ġscript": 6833,
      "Ġupdated": 6834,
      "audit": 6835,
      "nodeName": 6836,
      "Returned": 6837,
      "usted": 6838,
      "soft": 6839,
      "Ġhref": 6840,
      "Should": 6841,
      "latitude": 6842,
      "Ġmethods": 6843,
      "getNext": 6844,
      "Ġwidth": 6845,
      "lazy": 6846,
      "ĠSee": 6847,
      "newRequest": 6848,
      "nchronous": 6849,
      "GEN": 6850,
      "Ġstep": 6851,
      "limits": 6852,
      "servlet": 6853,
      ",'": 6854,
      "åĩ": 6855,
      "Ġheaders": 6856,
      "Elastic": 6857,
      "Ġrender": 6858,
      "ELE": 6859,
      "æ³": 6860,
      "Ġsequence": 6861,
      "MM": 6862,
      "wall": 6863,
      "rd": 6864,
      "Ġmatches": 6865,
      "rott": 6866,
      "\")\"": 6867,
      "TEMP": 6868,
      "mbed": 6869,
      "Ġreset": 6870,
      "InterruptedException": 6871,
      "incoming": 6872,
      "aper": 6873,
      "ONG": 6874,
      "Fast": 6875,
      "getFirst": 6876,
      "legacy": 6877,
      "sizes": 6878,
      "delivery": 6879,
      "Segments": 6880,
      "getLast": 6881,
      "rw": 6882,
      "Ġsim": 6883,
      "efficient": 6884,
      "Ġdetermine": 6885,
      "optParams": 6886,
      "LoadBalancer": 6887,
      "EP": 6888,
      "scanner": 6889,
      "Builds": 6890,
      "Windows": 6891,
      "Ġbreak": 6892,
      "agg": 6893,
      "geom": 6894,
      "Ġchain": 6895,
      "subset": 6896,
      "SARL": 6897,
      "Please": 6898,
      "udio": 6899,
      "getRoot": 6900,
      "weekday": 6901,
      "Dynamic": 6902,
      "meth": 6903,
      "RET": 6904,
      "Ġselect": 6905,
      "curve": 6906,
      "Ġspecial": 6907,
      "Eshop": 6908,
      "ISO": 6909,
      "aemon": 6910,
      "Persistent": 6911,
      "Disable": 6912,
      "TIVE": 6913,
      "lastIndex": 6914,
      "Primitive": 6915,
      "queryBuilder": 6916,
      "Ġactive": 6917,
      "Ġstrings": 6918,
      "Ġmessages": 6919,
      "visibility": 6920,
      "\"\\\\": 6921,
      "ĠTry": 6922,
      "Ġsuch": 6923,
      "urable": 6924,
      "INDEX": 6925,
      "twig": 6926,
      "deps": 6927,
      "FORM": 6928,
      "streams": 6929,
      "Ra": 6930,
      "Specification": 6931,
      "MAGE": 6932,
      "ResponseWriter": 6933,
      "ias": 6934,
      "advance": 6935,
      "aching": 6936,
      "Skill": 6937,
      "IGN": 6938,
      "WOR": 6939,
      "maybe": 6940,
      "perly": 6941,
      "prediction": 6942,
      "bank": 6943,
      "getClient": 6944,
      "Php": 6945,
      "Home": 6946,
      "Ġplugin": 6947,
      "Browser": 6948,
      "raps": 6949,
      "Angle": 6950,
      "sites": 6951,
      "Forward": 6952,
      "nextPage": 6953,
      "computed": 6954,
      "svg": 6955,
      "rollers": 6956,
      "Ġfinal": 6957,
      "Ġaccept": 6958,
      "composer": 6959,
      "quoted": 6960,
      "Sco": 6961,
      "well": 6962,
      "Composite": 6963,
      "upon": 6964,
      "Theme": 6965,
      "expiration": 6966,
      "Implemented": 6967,
      "ĠNULL": 6968,
      "53": 6969,
      "agger": 6970,
      "riend": 6971,
      "\"(": 6972,
      "Without": 6973,
      "ji": 6974,
      "setter": 6975,
      "bridge": 6976,
      "ĠHTTP": 6977,
      "Manifest": 6978,
      "txn": 6979,
      "Nested": 6980,
      "compet": 6981,
      "Compo": 6982,
      "Native": 6983,
      "getBody": 6984,
      "FileSystem": 6985,
      "Ġfetch": 6986,
      "upgrade": 6987,
      "Provision": 6988,
      "Keyword": 6989,
      "endsWith": 6990,
      "ble": 6991,
      "XY": 6992,
      "cue": 6993,
      "ĠString": 6994,
      "serve": 6995,
      "rotate": 6996,
      "versed": 6997,
      "Vide": 6998,
      "Escape": 6999,
      "Infos": 7000,
      "Relative": 7001,
      "linear": 7002,
      "policies": 7003,
      "ServerError": 7004,
      "apture": 7005,
      "campaign": 7006,
      "jax": 7007,
      "ital": 7008,
      "blog": 7009,
      "Digest": 7010,
      "Ġsettings": 7011,
      "Blank": 7012,
      "Ġprevent": 7013,
      "combine": 7014,
      "Ġsw": 7015,
      "Ñĭ": 7016,
      "quality": 7017,
      "those": 7018,
      "puts": 7019,
      "GIN": 7020,
      "sever": 7021,
      "Ġoccur": 7022,
      "PAGE": 7023,
      "Ġexit": 7024,
      "Mouse": 7025,
      "symbols": 7026,
      "gradient": 7027,
      "ipt": 7028,
      "nu": 7029,
      "DOC": 7030,
      "Ġ10": 7031,
      "getModel": 7032,
      "UD": 7033,
      "Templates": 7034,
      "Ġsomething": 7035,
      "ĠON": 7036,
      "recover": 7037,
      "forms": 7038,
      "andshake": 7039,
      "EMA": 7040,
      "iteritems": 7041,
      "nom": 7042,
      "keySet": 7043,
      "clients": 7044,
      "resse": 7045,
      "çĽ": 7046,
      "extmethods": 7047,
      "BigDecimal": 7048,
      "runner": 7049,
      "Fix": 7050,
      "collector": 7051,
      "bbox": 7052,
      "gz": 7053,
      "transformer": 7054,
      "Ġpassword": 7055,
      "ban": 7056,
      "Ġtimeout": 7057,
      "Clone": 7058,
      "rx": 7059,
      "experiment": 7060,
      "during": 7061,
      "mappings": 7062,
      "nm": 7063,
      "ython": 7064,
      "Ġparams": 7065,
      "Activ": 7066,
      "43": 7067,
      "ampling": 7068,
      "eof": 7069,
      "credential": 7070,
      "regular": 7071,
      "è¡Į": 7072,
      "rhs": 7073,
      "Hour": 7074,
      "going": 7075,
      "Ġrepresent": 7076,
      "Ġcollection": 7077,
      "prox": 7078,
      "avel": 7079,
      "aker": 7080,
      "writing": 7081,
      "DED": 7082,
      "]+)": 7083,
      "Ġfa": 7084,
      "Fld": 7085,
      "BACK": 7086,
      "().": 7087,
      "difference": 7088,
      "ä¿": 7089,
      "Ġdist": 7090,
      "flip": 7091,
      "TOP": 7092,
      "mux": 7093,
      "ENCE": 7094,
      "visitor": 7095,
      "Coord": 7096,
      "ience": 7097,
      "JAXB": 7098,
      "Recogn": 7099,
      "converts": 7100,
      "inct": 7101,
      "æľī": 7102,
      "Sp": 7103,
      "notNull": 7104,
      "exports": 7105,
      "Loads": 7106,
      "92": 7107,
      "Ġenabled": 7108,
      "subclass": 7109,
      "ertificates": 7110,
      "nullable": 7111,
      "runs": 7112,
      "Chars": 7113,
      "ATTRIBU": 7114,
      "(.*": 7115,
      "peek": 7116,
      "Dependencies": 7117,
      "Ġactually": 7118,
      "Tracker": 7119,
      "dicates": 7120,
      "executable": 7121,
      "even": 7122,
      "issu": 7123,
      "Book": 7124,
      "Io": 7125,
      "returnValue": 7126,
      "Ġvalidation": 7127,
      "ErrorCode": 7128,
      "Commands": 7129,
      "lide": 7130,
      "preview": 7131,
      "Cols": 7132,
      "Catalog": 7133,
      "cv": 7134,
      "rue": 7135,
      "feedback": 7136,
      "ResultSet": 7137,
      "phpcs": 7138,
      "udo": 7139,
      "Ġlabel": 7140,
      "\"-\"": 7141,
      "Ġvia": 7142,
      "CB": 7143,
      "Ġmatching": 7144,
      "åĢ": 7145,
      "expanded": 7146,
      "setText": 7147,
      "IMAGE": 7148,
      "ATED": 7149,
      "Ġpylint": 7150,
      "verb": 7151,
      "AccessToken": 7152,
      "numberOf": 7153,
      "{}\"": 7154,
      "Middleware": 7155,
      "artbeat": 7156,
      "pers": 7157,
      "Ready": 7158,
      "Audit": 7159,
      "Unt": 7160,
      "å¾": 7161,
      "formula": 7162,
      "Statistics": 7163,
      "Ġprocessing": 7164,
      "Launch": 7165,
      "OPEN": 7166,
      "nx": 7167,
      "ĠThere": 7168,
      "Mappings": 7169,
      "rep": 7170,
      "recur": 7171,
      "!!": 7172,
      "getBase": 7173,
      "enance": 7174,
      "SetContext": 7175,
      "chemas": 7176,
      "Lifecycle": 7177,
      "Like": 7178,
      "Conditions": 7179,
      "enario": 7180,
      "structs": 7181,
      "footer": 7182,
      "orter": 7183,
      "\");": 7184,
      "retries": 7185,
      "Analysis": 7186,
      "pf": 7187,
      "eventName": 7188,
      "projection": 7189,
      "ParseException": 7190,
      "Den": 7191,
      "Creation": 7192,
      "endpoints": 7193,
      "æĸĩä»¶": 7194,
      "ITE": 7195,
      "average": 7196,
      "Ġtake": 7197,
      "Ġsm": 7198,
      "Ġmove": 7199,
      "cussion": 7200,
      "dependent": 7201,
      "Equals": 7202,
      "frequency": 7203,
      "ventory": 7204,
      "bam": 7205,
      "Recursive": 7206,
      "instruction": 7207,
      "Ġfolder": 7208,
      "Grant": 7209,
      "getSource": 7210,
      "UNK": 7211,
      "Ġwindow": 7212,
      "printStackTrace": 7213,
      "Ġclosed": 7214,
      "underlying": 7215,
      "gap": 7216,
      "Accessor": 7217,
      "Ġloaded": 7218,
      "Maps": 7219,
      "REN": 7220,
      "assertions": 7221,
      "ceil": 7222,
      "substit": 7223,
      "WriteString": 7224,
      "OU": 7225,
      "Ġ\"\"\"": 7226,
      "Safe": 7227,
      "ane": 7228,
      "Ġrequires": 7229,
      "Assignable": 7230,
      "ibm": 7231,
      "directive": 7232,
      "Ġaccount": 7233,
      "scopes": 7234,
      "vocab": 7235,
      "allen": 7236,
      "yes": 7237,
      "accounts": 7238,
      "company": 7239,
      "cod": 7240,
      "Variant": 7241,
      "tb": 7242,
      "Ġtree": 7243,
      "particular": 7244,
      "Ġ!=": 7245,
      "æĿ": 7246,
      "getHeader": 7247,
      "ä¸Ń": 7248,
      "Light": 7249,
      "rus": 7250,
      "Ġappend": 7251,
      "handles": 7252,
      "Delta": 7253,
      "Quant": 7254,
      "';": 7255,
      "IE": 7256,
      "decoder": 7257,
      "odle": 7258,
      "Ġunique": 7259,
      "finity": 7260,
      "Writes": 7261,
      "Ġ)?": 7262,
      "strtoupper": 7263,
      "candidates": 7264,
      "Ġmemory": 7265,
      "MON": 7266,
      "ND": 7267,
      "Ġ20": 7268,
      "posts": 7269,
      "successful": 7270,
      "ticket": 7271,
      "Ġproject": 7272,
      "Video": 7273,
      "Configs": 7274,
      "Defined": 7275,
      "qPath": 7276,
      "Jar": 7277,
      "ught": 7278,
      "scheduler": 7279,
      "ette": 7280,
      "Free": 7281,
      "Union": 7282,
      "CLO": 7283,
      "SR": 7284,
      "Attrs": 7285,
      "TERN": 7286,
      "Ġsent": 7287,
      "Indexes": 7288,
      "atomic": 7289,
      "Features": 7290,
      "rence": 7291,
      "ARY": 7292,
      "OFF": 7293,
      "mixed": 7294,
      "translator": 7295,
      ".%": 7296,
      "åį": 7297,
      "speed": 7298,
      "Ġassume": 7299,
      "98": 7300,
      "ingerprint": 7301,
      "Follow": 7302,
      "Ġcurrently": 7303,
      "filenames": 7304,
      "icket": 7305,
      "problem": 7306,
      "getIn": 7307,
      "RequestException": 7308,
      "klog": 7309,
      "observ": 7310,
      "intval": 7311,
      "ĠOtherwise": 7312,
      "Added": 7313,
      "minor": 7314,
      "autogenerated": 7315,
      "Otherwise": 7316,
      "VEL": 7317,
      "Qualified": 7318,
      "stores": 7319,
      "References": 7320,
      "liver": 7321,
      "clusters": 7322,
      "ĠRead": 7323,
      "Ġmany": 7324,
      "Same": 7325,
      "deriv": 7326,
      "PY": 7327,
      "cuit": 7328,
      "Ok": 7329,
      "antiate": 7330,
      "Serialize": 7331,
      "compression": 7332,
      "documents": 7333,
      "calculated": 7334,
      "ÐµÐ½": 7335,
      "locals": 7336,
      "Docker": 7337,
      "multip": 7338,
      "REG": 7339,
      "isNull": 7340,
      "aches": 7341,
      "similar": 7342,
      "OW": 7343,
      "itter": 7344,
      "ApplyOptions": 7345,
      "ems": 7346,
      "Ġapply": 7347,
      "hard": 7348,
      "Ð·": 7349,
      "ov": 7350,
      "ĠDon": 7351,
      "pagination": 7352,
      "Indices": 7353,
      "Ġmost": 7354,
      "LIN": 7355,
      "RGB": 7356,
      "Policies": 7357,
      "Ġdimension": 7358,
      "dial": 7359,
      "Ġentries": 7360,
      "invoice": 7361,
      "Ġiss": 7362,
      "Calculate": 7363,
      "atoms": 7364,
      "highlight": 7365,
      "Ġ(\"": 7366,
      "RegExp": 7367,
      "ĠConvert": 7368,
      "declared": 7369,
      "Ġremain": 7370,
      "RESOURCE": 7371,
      "ucfirst": 7372,
      "setData": 7373,
      "typeName": 7374,
      "lications": 7375,
      "currentTimeMillis": 7376,
      "jcas": 7377,
      "ĠBuild": 7378,
      "mous": 7379,
      "forum": 7380,
      "HOST": 7381,
      "bos": 7382,
      "getItem": 7383,
      "Slot": 7384,
      "Ġsample": 7385,
      "alignment": 7386,
      "Center": 7387,
      "Claim": 7388,
      "hint": 7389,
      "lst": 7390,
      "Ġ'$": 7391,
      "aken": 7392,
      "HttpResponse": 7393,
      "Ġactual": 7394,
      "une": 7395,
      "esis": 7396,
      "RENT": 7397,
      "*\"": 7398,
      "past": 7399,
      "convertTo": 7400,
      "scription": 7401,
      "scripts": 7402,
      "Ġextract": 7403,
      "longitude": 7404,
      "minute": 7405,
      "123": 7406,
      "ndarray": 7407,
      "material": 7408,
      "Ġcolor": 7409,
      "did": 7410,
      "ELEMENT": 7411,
      "sink": 7412,
      "wb": 7413,
      "';'": 7414,
      "prevent": 7415,
      "\">'": 7416,
      "asis": 7417,
      "AsString": 7418,
      "Partial": 7419,
      "FR": 7420,
      "Images": 7421,
      "ru": 7422,
      "IOError": 7423,
      "posal": 7424,
      "ibly": 7425,
      "vlan": 7426,
      "newLine": 7427,
      "plier": 7428,
      "variance": 7429,
      "ĠruleJvm": 7430,
      "è§": 7431,
      "linked": 7432,
      "Signal": 7433,
      "Ġput": 7434,
      "mform": 7435,
      "Front": 7436,
      "SCH": 7437,
      "Ġbl": 7438,
      "JB": 7439,
      "getInt": 7440,
      "applied": 7441,
      "ĊĠĠĠĠĠĠ": 7442,
      "Mac": 7443,
      "thrown": 7444,
      "ctype": 7445,
      "buckets": 7446,
      "Ġcontinue": 7447,
      "getChild": 7448,
      "Ġprovide": 7449,
      "Ġcomplete": 7450,
      "ĠHandle": 7451,
      "Ġday": 7452,
      "Blocking": 7453,
      "getSimple": 7454,
      "pu": 7455,
      "getStatus": 7456,
      "projects": 7457,
      "iggers": 7458,
      "Exceptions": 7459,
      "Embed": 7460,
      "Ġspecify": 7461,
      "æĹ¶": 7462,
      "guess": 7463,
      "Ġinterface": 7464,
      "Ġpri": 7465,
      "([^": 7466,
      "COLUMN": 7467,
      "Getter": 7468,
      "concaten": 7469,
      "stand": 7470,
      "leet": 7471,
      "duplicate": 7472,
      "Ġdict": 7473,
      "Family": 7474,
      "85": 7475,
      "åĽŀ": 7476,
      "Enter": 7477,
      "ARD": 7478,
      "convers": 7479,
      "Ġtags": 7480,
      "qualified": 7481,
      "locked": 7482,
      "tracker": 7483,
      "Mime": 7484,
      "Python": 7485,
      "ĠTo": 7486,
      "WID": 7487,
      "Ġdefinition": 7488,
      "phab": 7489,
      "Destroy": 7490,
      "scalarNode": 7491,
      "onymous": 7492,
      "levant": 7493,
      "Ġpublic": 7494,
      "TCP": 7495,
      "LEVEL": 7496,
      "Ġframe": 7497,
      "potential": 7498,
      "ilent": 7499,
      "nost": 7500,
      "ServiceFuture": 7501,
      "quad": 7502,
      "Comments": 7503,
      "Cir": 7504,
      "launch": 7505,
      "Restore": 7506,
      "HP": 7507,
      "Setter": 7508,
      "Foc": 7509,
      "ĊĠĠĠĠĠĠĠĠĠĠĠĠĠĠĠĠĠĠĠĠĠĠĠ": 7510,
      "Even": 7511,
      "outfile": 7512,
      "inary": 7513,
      "fraction": 7514,
      "astic": 7515,
      "awt": 7516,
      "Enumer": 7517,
      "cedure": 7518,
      "Pull": 7519,
      "pal": 7520,
      "Numeric": 7521,
      "hydr": 7522,
      "Ġencoding": 7523,
      "Ġexample": 7524,
      "Ġexpect": 7525,
      "Pur": 7526,
      "race": 7527,
      "PrivateKey": 7528,
      "Ġregistered": 7529,
      "Ġremote": 7530,
      "Library": 7531,
      "lug": 7532,
      "AMETER": 7533,
      "lexer": 7534,
      "dirty": 7535,
      "reater": 7536,
      "Deserial": 7537,
      "Plural": 7538,
      "sensitive": 7539,
      "utc": 7540,
      "ised": 7541,
      "Est": 7542,
      "tour": 7543,
      "ios": 7544,
      "Ġ('": 7545,
      "stamps": 7546,
      "'('": 7547,
      "letter": 7548,
      "appends": 7549,
      "Ġrelation": 7550,
      "Sources": 7551,
      "NUMBER": 7552,
      "Sk": 7553,
      "serviceCallback": 7554,
      "Deploy": 7555,
      "ĊĠĠĠĠĠĠĠĠĠĠĠĠĠĠĠĠĠĠĠĠĠĠĠĠĠĠĠĠĠĠĠĠ": 7556,
      "Migration": 7557,
      "rescue": 7558,
      "HTTPMethod": 7559,
      "Side": 7560,
      "Cached": 7561,
      "middle": 7562,
      "Ġbind": 7563,
      "ajax": 7564,
      "prog": 7565,
      "overflow": 7566,
      "wind": 7567,
      "Review": 7568,
      "ARG": 7569,
      "Determine": 7570,
      "41": 7571,
      "Management": 7572,
      "Ġcomment": 7573,
      "Pane": 7574,
      "Ġch": 7575,
      "PrimaryKey": 7576,
      "sanitize": 7577,
      "Hidden": 7578,
      "getRepository": 7579,
      "Disabled": 7580,
      "Polygon": 7581,
      "rp": 7582,
      "atar": 7583,
      "overrides": 7584,
      "æķ°æį®": 7585,
      "isIn": 7586,
      "compatibility": 7587,
      "æĪĲ": 7588,
      "è½": 7589,
      "quick": 7590,
      "phpcsFile": 7591,
      "LIMIT": 7592,
      "offsets": 7593,
      "Once": 7594,
      "Ġcontrol": 7595,
      "getVersion": 7596,
      "ious": 7597,
      "suppress": 7598,
      "rror": 7599,
      "]]": 7600,
      "----------": 7601,
      "square": 7602,
      "MAC": 7603,
      "wallet": 7604,
      "Define": 7605,
      "Diction": 7606,
      "associate": 7607,
      "tenant": 7608,
      "ç¬": 7609,
      "ĠSkip": 7610,
      "ColumnName": 7611,
      "rdf": 7612,
      "getIndex": 7613,
      "transformation": 7614,
      "`.": 7615,
      "POSI": 7616,
      "61": 7617,
      "ãģ®": 7618,
      "Ratio": 7619,
      "inverse": 7620,
      "Dot": 7621,
      "apes": 7622,
      "angular": 7623,
      "Ġheight": 7624,
      "typed": 7625,
      "éĩ": 7626,
      "tri": 7627,
      "broker": 7628,
      "QUI": 7629,
      "notes": 7630,
      "Ġschema": 7631,
      "DeepCopyInto": 7632,
      "Mongo": 7633,
      "Scheduler": 7634,
      "allery": 7635,
      "authenticated": 7636,
      "æŁ": 7637,
      "Ġglobal": 7638,
      "RETURN": 7639,
      "vation": 7640,
      "kit": 7641,
      "astype": 7642,
      "Ġ8": 7643,
      "notifications": 7644,
      "requirements": 7645,
      "abstract": 7646,
      "auge": 7647,
      "ClientExecution": 7648,
      "Ġmatrix": 7649,
      "ĠStart": 7650,
      "COLOR": 7651,
      "PR": 7652,
      "las": 7653,
      "logged": 7654,
      "popup": 7655,
      "Emit": 7656,
      "alformed": 7657,
      "parsers": 7658,
      "Ġinstall": 7659,
      "TagName": 7660,
      "Plugins": 7661,
      "Quest": 7662,
      "XPath": 7663,
      "asList": 7664,
      "MSG": 7665,
      "grammarAccess": 7666,
      "Mag": 7667,
      "processes": 7668,
      "Ġexplicit": 7669,
      "getBytes": 7670,
      "peg": 7671,
      "Unix": 7672,
      "individual": 7673,
      "tics": 7674,
      "beforeClientExecution": 7675,
      "human": 7676,
      "Checker": 7677,
      "WT": 7678,
      "outil": 7679,
      "Lim": 7680,
      "Ġclear": 7681,
      "overlay": 7682,
      "TRANS": 7683,
      "Expressions": 7684,
      "Handles": 7685,
      "balance": 7686,
      "'>'": 7687,
      "bid": 7688,
      "reload": 7689,
      "lhs": 7690,
      "bp": 7691,
      "expired": 7692,
      "unce": 7693,
      "Filesystem": 7694,
      "Serve": 7695,
      "sures": 7696,
      "Reserved": 7697,
      "colon": 7698,
      "RIGHT": 7699,
      "quantity": 7700,
      "Ġconfigured": 7701,
      "unlink": 7702,
      "PHPExcel": 7703,
      "78": 7704,
      "WITH": 7705,
      "generation": 7706,
      "taxonomy": 7707,
      "attachments": 7708,
      "Issue": 7709,
      "cha": 7710,
      "markup": 7711,
      "Ġtitle": 7712,
      "Ġplace": 7713,
      "feat": 7714,
      "Ġanything": 7715,
      "prepend": 7716,
      "Pixel": 7717,
      "expressions": 7718,
      "Redu": 7719,
      "readcrumb": 7720,
      "Targets": 7721,
      "ral": 7722,
      "Ġmain": 7723,
      "HTTPPath": 7724,
      "dup": 7725,
      "ä¼": 7726,
      "].": 7727,
      "codec": 7728,
      "oned": 7729,
      "getAbsolute": 7730,
      "sessions": 7731,
      "Ġchildren": 7732,
      "PUB": 7733,
      "Ġind": 7734,
      "domains": 7735,
      "startTime": 7736,
      "filer": 7737,
      "Ġmon": 7738,
      "Canonical": 7739,
      "\";": 7740,
      "getCache": 7741,
      "CII": 7742,
      "combined": 7743,
      "Ġdue": 7744,
      "inate": 7745,
      "NotExist": 7746,
      "Ġnetwork": 7747,
      "Ġown": 7748,
      "Roll": 7749,
      "providers": 7750,
      "ĠU": 7751,
      "basePath": 7752,
      "aux": 7753,
      "Errs": 7754,
      "getError": 7755,
      "?)": 7756,
      "ASS": 7757,
      "ĠInternalSARL": 7758,
      "DN": 7759,
      "ERY": 7760,
      "Ġselected": 7761,
      "imag": 7762,
      "RUnlock": 7763,
      "Ġrows": 7764,
      "large": 7765,
      "rh": 7766,
      "Ġ[\"": 7767,
      "PARAMETER": 7768,
      "cron": 7769,
      "ioutil": 7770,
      "getHost": 7771,
      "Ġbegin": 7772,
      "MAN": 7773,
      "Pdf": 7774,
      "proj": 7775,
      "ifiable": 7776,
      "ValidationError": 7777,
      "Ġsplit": 7778,
      "Extended": 7779,
      "daemon": 7780,
      "ropy": 7781,
      "documentation": 7782,
      "Ġvalidate": 7783,
      "Ġinside": 7784,
      "ational": 7785,
      "Choice": 7786,
      "Ġ&&": 7787,
      "Curve": 7788,
      "primaryKey": 7789,
      "Coordinate": 7790,
      "GLOBALS": 7791,
      "CN": 7792,
      "rendered": 7793,
      "prepared": 7794,
      "atory": 7795,
      "Formats": 7796,
      "bond": 7797,
      "IFC": 7798,
      "plac": 7799,
      "Car": 7800,
      "52": 7801,
      "FINE": 7802,
      "unded": 7803,
      "Switch": 7804,
      "maint": 7805,
      "TIMEOUT": 7806,
      "Ġ</": 7807,
      "Ġreport": 7808,
      "62": 7809,
      "gamma": 7810,
      "hest": 7811,
      "Received": 7812,
      "getWidth": 7813,
      "Behavior": 7814,
      "Dictionary": 7815,
      "Ġtotal": 7816,
      "swap": 7817,
      "broadcast": 7818,
      "ĠJOIN": 7819,
      "isAssignable": 7820,
      "Share": 7821,
      "Loaded": 7822,
      "Endpoints": 7823,
      "uplicates": 7824,
      "Lambda": 7825,
      "recogn": 7826,
      "Integr": 7827,
      "Ġroute": 7828,
      "GroupId": 7829,
      "Hint": 7830,
      "Ġstatement": 7831,
      "intersection": 7832,
      "thumbnail": 7833,
      "containers": 7834,
      "mutation": 7835,
      "theEObject": 7836,
      "Upgrade": 7837,
      "automatically": 7838,
      "Ġlon": 7839,
      "Ġrest": 7840,
      "ners": 7841,
      "ApiException": 7842,
      "Delegate": 7843,
      "ArgumentError": 7844,
      "Operations": 7845,
      "Visit": 7846,
      "iate": 7847,
      "izers": 7848,
      "Dealer": 7849,
      "cases": 7850,
      "splice": 7851,
      "compilation": 7852,
      "specification": 7853,
      "SERT": 7854,
      "buttons": 7855,
      "mtime": 7856,
      "Typed": 7857,
      "allenge": 7858,
      "DIT": 7859,
      "JAXBElement": 7860,
      "Locked": 7861,
      "Unicode": 7862,
      "stdin": 7863,
      "SERVICE": 7864,
      "getSimpleName": 7865,
      "Ġnormal": 7866,
      "'|'": 7867,
      "UMENT": 7868,
      "stdClass": 7869,
      "Ġ\\$": 7870,
      "getStart": 7871,
      "numer": 7872,
      "åŃĺ": 7873,
      "YY": 7874,
      "urther": 7875,
      "belong": 7876,
      "behavior": 7877,
      "Ġdec": 7878,
      "Additional": 7879,
      "127": 7880,
      "Sorted": 7881,
      "world": 7882,
      "ighest": 7883,
      "avg": 7884,
      "parses": 7885,
      "Cli": 7886,
      "ĠWrite": 7887,
      "TRY": 7888,
      "Dif": 7889,
      "seudo": 7890,
      "nextPageLink": 7891,
      "Ġwell": 7892,
      "amazonaws": 7893,
      "Mis": 7894,
      "gi": 7895,
      "Tmp": 7896,
      "coordinate": 7897,
      "Ġ'{}'": 7898,
      "Ġauto": 7899,
      "msgs": 7900,
      "Inject": 7901,
      "toggle": 7902,
      "YA": 7903,
      "Ġsu": 7904,
      "Envelope": 7905,
      "surface": 7906,
      "Doctrine": 7907,
      "Runner": 7908,
      "Ġmapping": 7909,
      "indexed": 7910,
      "phabet": 7911,
      "TimeUnit": 7912,
      "hyper": 7913,
      "Kernel": 7914,
      "syscall": 7915,
      "anno": 7916,
      "tests": 7917,
      "vault": 7918,
      "hold": 7919,
      "Force": 7920,
      "getView": 7921,
      "655": 7922,
      "Ġdevice": 7923,
      "half": 7924,
      "Ġpaths": 7925,
      "ĠWhen": 7926,
      "Adresse": 7927,
      "ANT": 7928,
      "specs": 7929,
      "mr": 7930,
      "Iterate": 7931,
      "Ġreceived": 7932,
      "Ġsuccessfully": 7933,
      "sparse": 7934,
      "Ġargs": 7935,
      "deprecated": 7936,
      "issuer": 7937,
      "Ġdirectly": 7938,
      "Ġseconds": 7939,
      "nth": 7940,
      "ippet": 7941,
      "Ġ)*": 7942,
      "Ġenvironment": 7943,
      "åĲį": 7944,
      "|\\": 7945,
      "Performs": 7946,
      "åľ¨": 7947,
      "holders": 7948,
      "Invoice": 7949,
      "Finds": 7950,
      "too": 7951,
      "racket": 7952,
      "Sys": 7953,
      "Ġthose": 7954,
      "windows": 7955,
      "NewErrParamRequired": 7956,
      "Dy": 7957,
      "elsif": 7958,
      "ÑĢÐ°": 7959,
      "setType": 7960,
      "Face": 7961,
      "ĠSo": 7962,
      "72": 7963,
      "FromString": 7964,
      "andidate": 7965,
      "odule": 7966,
      "ij": 7967,
      "modifiers": 7968,
      "POINT": 7969,
      "éĻ": 7970,
      "RLock": 7971,
      "vertical": 7972,
      "\"&": 7973,
      "referenced": 7974,
      "dataType": 7975,
      "handled": 7976,
      "%'": 7977,
      "interpret": 7978,
      "finite": 7979,
      "NumberOf": 7980,
      "Connections": 7981,
      "ĠCal": 7982,
      "btn": 7983,
      "grees": 7984,
      "Sn": 7985,
      "gettype": 7986,
      "pacity": 7987,
      "prefixes": 7988,
      "Started": 7989,
      "QUERY": 7990,
      "getTarget": 7991,
      "sequences": 7992,
      "checkbox": 7993,
      "macro": 7994,
      ".\\": 7995,
      "Ġdig": 7996,
      "getElements": 7997,
      "authenticate": 7998,
      "equivalent": 7999,
      "partitions": 8000,
      "Tools": 8001,
      "åĬł": 8002,
      "setdefault": 8003,
      "OrderBy": 8004,
      "FileInfo": 8005,
      "cores": 8006,
      "Ġreal": 8007,
      "reading": 8008,
      "elete": 8009,
      "addClass": 8010,
      "mgmt": 8011,
      "Ġcondition": 8012,
      "Self": 8013,
      "scene": 8014,
      "CHEC": 8015,
      "persistent": 8016,
      "09": 8017,
      "Ca": 8018,
      "']'": 8019,
      "occ": 8020,
      "WORK": 8021,
      "isfile": 8022,
      "rid": 8023,
      "Ġcontroller": 8024,
      "Runnable": 8025,
      "getUrl": 8026,
      "Will": 8027,
      "histogram": 8028,
      "fld": 8029,
      "gridBagConstraints": 8030,
      "Ġgenerated": 8031,
      "Scheduled": 8032,
      "limited": 8033,
      "Ġidentifier": 8034,
      "isNot": 8035,
      "æŀľ": 8036,
      "elapsed": 8037,
      "ym": 8038,
      "Compat": 8039,
      "IB": 8040,
      "provides": 8041,
      "nit": 8042,
      "caption": 8043,
      "Vo": 8044,
      "getState": 8045,
      "Twig": 8046,
      "Flash": 8047,
      "Layers": 8048,
      "lices": 8049,
      "arraycopy": 8050,
      "errorMessage": 8051,
      "Already": 8052,
      "unnel": 8053,
      "Leaf": 8054,
      "mutex": 8055,
      "getPage": 8056,
      "LATE": 8057,
      "positories": 8058,
      "Ġinternal": 8059,
      "envelope": 8060,
      "ĠObject": 8061,
      "guid": 8062,
      "accessToken": 8063,
      "sequent": 8064,
      "Runs": 8065,
      "Days": 8066,
      "Ġfix": 8067,
      "Logic": 8068,
      "were": 8069,
      "ads": 8070,
      "REMO": 8071,
      "Alpha": 8072,
      "getResult": 8073,
      "Cast": 8074,
      "ĠAn": 8075,
      "developer": 8076,
      "fasta": 8077,
      "rtrim": 8078,
      "Cipher": 8079,
      "nat": 8080,
      "TPUT": 8081,
      "frag": 8082,
      "Stamp": 8083,
      "Daemon": 8084,
      "aring": 8085,
      "ReturnType": 8086,
      "design": 8087,
      "contained": 8088,
      "Ġdebug": 8089,
      "principal": 8090,
      "Ġhigh": 8091,
      "Counts": 8092,
      "setattr": 8093,
      "Secure": 8094,
      "LF": 8095,
      "Ġfilename": 8096,
      "comparator": 8097,
      "Completed": 8098,
      "Ġmulti": 8099,
      "Vec": 8100,
      "Writable": 8101,
      "ĊĠĠĠĠĠĠĠĠĠĠĠĠĠĠĠĠĠĠĠĠĠĠĠĠ": 8102,
      "uation": 8103,
      "connector": 8104,
      "erver": 8105,
      "grpc": 8106,
      "months": 8107,
      "ĠNOTE": 8108,
      "postBody": 8109,
      "intervals": 8110,
      "wave": 8111,
      "ErrInvalidParams": 8112,
      "soap": 8113,
      "RT": 8114,
      "gid": 8115,
      "itemap": 8116,
      "quit": 8117,
      "Availability": 8118,
      "itation": 8119,
      "listed": 8120,
      "overlap": 8121,
      "Specific": 8122,
      "pix": 8123,
      "paren": 8124,
      "ticks": 8125,
      "billing": 8126,
      "swing": 8127,
      "'^": 8128,
      "fall": 8129,
      "MODULE": 8130,
      "rtype": 8131,
      "{{": 8132,
      "RFC": 8133,
      "è¿Ķ": 8134,
      "BLOCK": 8135,
      "Ġbr": 8136,
      "IAtom": 8137,
      "ĠFile": 8138,
      "Invoke": 8139,
      "consistent": 8140,
      "EW": 8141,
      "essaging": 8142,
      "Too": 8143,
      "Ġ()": 8144,
      "Matching": 8145,
      "Ġenough": 8146,
      "isAssignableFrom": 8147,
      "iterate": 8148,
      "stride": 8149,
      "getParam": 8150,
      "WIDTH": 8151,
      "Pin": 8152,
      "Shutdown": 8153,
      "Ġcalling": 8154,
      "aggregation": 8155,
      "Based": 8156,
      "69": 8157,
      "cx": 8158,
      "served": 8159,
      "checkNotNull": 8160,
      "UpperCase": 8161,
      "ãĤĴ": 8162,
      "ĠIP": 8163,
      "choose": 8164,
      "ĠXML": 8165,
      "Codec": 8166,
      "Ġrequests": 8167,
      "Ġinitialize": 8168,
      "buffers": 8169,
      "Ġemail": 8170,
      "ĠEnsure": 8171,
      "pied": 8172,
      "Bitmap": 8173,
      "Ġwrong": 8174,
      "activation": 8175,
      "VO": 8176,
      "arma": 8177,
      "ENTITY": 8178,
      "Af": 8179,
      "quotes": 8180,
      "Watcher": 8181,
      "might": 8182,
      "Quote": 8183,
      "ACCESS": 8184,
      "making": 8185,
      "Der": 8186,
      "Queries": 8187,
      "realpath": 8188,
      "FIXME": 8189,
      "Focus": 8190,
      "Adjust": 8191,
      "retrieves": 8192,
      "Ġ{@": 8193,
      "ErrorException": 8194,
      "mq": 8195,
      "ndim": 8196,
      "Ġraise": 8197,
      "paragraph": 8198,
      "Ġsepar": 8199,
      "Ġclasses": 8200,
      "trac": 8201,
      "Ġscope": 8202,
      "Ms": 8203,
      "Ġcases": 8204,
      "Ġextra": 8205,
      "recent": 8206,
      "Ġexecute": 8207,
      "seline": 8208,
      "wraps": 8209,
      "Recognition": 8210,
      "emplate": 8211,
      "æİ¥": 8212,
      "ATTRIBUTE": 8213,
      "ALE": 8214,
      "nv": 8215,
      "Swap": 8216,
      "\"_\"": 8217,
      "TTL": 8218,
      "tas": 8219,
      "hashes": 8220,
      "Connected": 8221,
      "ptors": 8222,
      "Inline": 8223,
      "Slug": 8224,
      "Cause": 8225,
      "resid": 8226,
      "arest": 8227,
      "Ġtrigger": 8228,
      "oct": 8229,
      "cacheKey": 8230,
      "ReflectionClass": 8231,
      "FFFF": 8232,
      "Aliases": 8233,
      "ons": 8234,
      "adline": 8235,
      "adaptor": 8236,
      "comes": 8237,
      "testing": 8238,
      "Game": 8239,
      "ÐµÑĤ": 8240,
      "pares": 8241,
      "Coverage": 8242,
      "ancestor": 8243,
      "GO": 8244,
      "Ġgraph": 8245,
      "Preconditions": 8246,
      "datastore": 8247,
      "fv": 8248,
      "ÑĮ": 8249,
      "dateTime": 8250,
      "mitted": 8251,
      "XXX": 8252,
      "unused": 8253,
      "logrus": 8254,
      "Evenement": 8255,
      "Ġaut": 8256,
      "ENV": 8257,
      "abspath": 8258,
      "Ġrelative": 8259,
      "getToken": 8260,
      "workers": 8261,
      "marks": 8262,
      "OUTPUT": 8263,
      "Ġshort": 8264,
      "outine": 8265,
      "Calls": 8266,
      "visited": 8267,
      "Ġparsing": 8268,
      "please": 8269,
      "illiseconds": 8270,
      "Ġitself": 8271,
      "observer": 8272,
      "orderByComparator": 8273,
      "getContainer": 8274,
      "ĠPlease": 8275,
      "CHECK": 8276,
      "Ġreason": 8277,
      "Inputs": 8278,
      "RS": 8279,
      "gable": 8280,
      "unsigned": 8281,
      "Preference": 8282,
      "Ġnoqa": 8283,
      "folders": 8284,
      "hierarchy": 8285,
      "Ġless": 8286,
      "Ġcompute": 8287,
      "translated": 8288,
      "fails": 8289,
      "Until": 8290,
      "###": 8291,
      "REQUI": 8292,
      "Sender": 8293,
      "ello": 8294,
      "Annotate": 8295,
      "excluded": 8296,
      "compose": 8297,
      "Ġcause": 8298,
      "getLog": 8299,
      "NOWN": 8300,
      "Privile": 8301,
      "åĢ¼": 8302,
      "fony": 8303,
      "prod": 8304,
      "lp": 8305,
      "Ġz": 8306,
      "Prev": 8307,
      "conversation": 8308,
      "tbl": 8309,
      "Intent": 8310,
      "jango": 8311,
      "unix": 8312,
      "White": 8313,
      "Ġbatch": 8314,
      "nick": 8315,
      "vey": 8316,
      "writable": 8317,
      "primitive": 8318,
      "Lin": 8319,
      "éĹ": 8320,
      "SEC": 8321,
      "Ġtrack": 8322,
      "ĠPHP": 8323,
      "qq": 8324,
      "Ato": 8325,
      "preferred": 8326,
      "Shipping": 8327,
      "Ġstructure": 8328,
      "chor": 8329,
      "competency": 8330,
      "peated": 8331,
      "globals": 8332,
      "returnType": 8333,
      "setDefault": 8334,
      "Existing": 8335,
      "ARE": 8336,
      "HttpClient": 8337,
      "yet": 8338,
      "Ġtim": 8339,
      "Interceptor": 8340,
      "FOUND": 8341,
      "andbox": 8342,
      "pv": 8343,
      "SPE": 8344,
      "accepts": 8345,
      "Nan": 8346,
      "Resp": 8347,
      "venience": 8348,
      "watcher": 8349,
      "Ġrules": 8350,
      "`,": 8351,
      "89": 8352,
      "CM": 8353,
      "ĠParse": 8354,
      "Configurations": 8355,
      "recv": 8356,
      "countered": 8357,
      "Ġjson": 8358,
      "declaration": 8359,
      "elastic": 8360,
      "waiting": 8361,
      "accepted": 8362,
      "allocate": 8363,
      "rune": 8364,
      "Padding": 8365,
      "Validates": 8366,
      "nowled": 8367,
      "arante": 8368,
      "Dump": 8369,
      "Confirm": 8370,
      "Ġsegment": 8371,
      "WP": 8372,
      "BigInteger": 8373,
      "Ġ7": 8374,
      "åī": 8375,
      "blocking": 8376,
      "Ġsignature": 8377,
      "¦Ĥ": 8378,
      "Ġmerge": 8379,
      "Ġdestination": 8380,
      "good": 8381,
      "mgr": 8382,
      "park": 8383,
      "FormatException": 8384,
      "LANG": 8385,
      "Ġsc": 8386,
      "compareTo": 8387,
      "Ġfunctions": 8388,
      "picker": 8389,
      "Devices": 8390,
      "isTrace": 8391,
      "Ġfloat": 8392,
      "Whitespace": 8393,
      "CSV": 8394,
      "nitro": 8395,
      "assemb": 8396,
      "upal": 8397,
      "Audio": 8398,
      "prote": 8399,
      "regions": 8400,
      "dash": 8401,
      "ĠLoad": 8402,
      "Mutable": 8403,
      "dfs": 8404,
      "gzip": 8405,
      "Encoded": 8406,
      "501": 8407,
      "OutputInterface": 8408,
      "Terminal": 8409,
      "Ġunknown": 8410,
      "PASS": 8411,
      "Ġstorage": 8412,
      "orientation": 8413,
      "UTE": 8414,
      "getHeight": 8415,
      "Undefined": 8416,
      "Ġcalculate": 8417,
      "Ġstored": 8418,
      "DIS": 8419,
      "LT": 8420,
      "iface": 8421,
      "glyph": 8422,
      "aven": 8423,
      "å¦Ĥ": 8424,
      "cov": 8425,
      "toler": 8426,
      "SECONDS": 8427,
      "rem": 8428,
      "atable": 8429,
      "Ġoptional": 8430,
      "OutOf": 8431,
      "WR": 8432,
      "Ġusers": 8433,
      "drag": 8434,
      "datasource": 8435,
      "crim": 8436,
      "Receive": 8437,
      "ĠruleX": 8438,
      "Ġdictionary": 8439,
      "likely": 8440,
      "Age": 8441,
      "CONTEXT": 8442,
      "Ġ6": 8443,
      "\"@": 8444,
      "Eval": 8445,
      "LABLE": 8446,
      "WithHttp": 8447,
      "NEW": 8448,
      "angles": 8449,
      "çĲ": 8450,
      "CID": 8451,
      "'%'": 8452,
      "intValue": 8453,
      "operand": 8454,
      "Thing": 8455,
      "bidden": 8456,
      "Declared": 8457,
      "PATTERN": 8458,
      "54": 8459,
      "Rpc": 8460,
      "pathname": 8461,
      "along": 8462,
      "Visibility": 8463,
      "Ġmaximum": 8464,
      "Streams": 8465,
      "ares": 8466,
      "JavaScript": 8467,
      "CLIENT": 8468,
      "Ġcommit": 8469,
      "quiet": 8470,
      "Salt": 8471,
      "Ġlower": 8472,
      "inality": 8473,
      "Ġlanguage": 8474,
      "avoid": 8475,
      "DateFormat": 8476,
      "Views": 8477,
      "StringUtil": 8478,
      "Lexer": 8479,
      "Lic": 8480,
      "Alert": 8481,
      "addTo": 8482,
      "subscriber": 8483,
      "accumul": 8484,
      "Digits": 8485,
      "Subscriber": 8486,
      "WithHttpInfo": 8487,
      "infos": 8488,
      "è¡¨": 8489,
      "riendly": 8490,
      "pdb": 8491,
      "Ġsmall": 8492,
      "CK": 8493,
      "die": 8494,
      "Executes": 8495,
      "alive": 8496,
      "protobuf": 8497,
      "jcasType": 8498,
      "Framework": 8499,
      "Alignment": 8500,
      "WRI": 8501,
      "migrations": 8502,
      "Diag": 8503,
      "fm": 8504,
      "Abort": 8505,
      "ETCH": 8506,
      "imen": 8507,
      "Ġsum": 8508,
      "Aggregate": 8509,
      "raction": 8510,
      "hood": 8511,
      "SUC": 8512,
      "Pick": 8513,
      "Checksum": 8514,
      "NAMESPACE": 8515,
      "84": 8516,
      "vh": 8517,
      "getProperties": 8518,
      "Injection": 8519,
      "ocial": 8520,
      "defining": 8521,
      "lour": 8522,
      "INI": 8523,
      "heading": 8524,
      "FROM": 8525,
      "Ġsite": 8526,
      "baseUrl": 8527,
      "Ġgu": 8528,
      "aterial": 8529,
      "(%": 8530,
      "Answ": 8531,
      "Interfaces": 8532,
      "Ġweb": 8533,
      "perature": 8534,
      "serialization": 8535,
      "Facade": 8536,
      "NotImplemented": 8537,
      "EXCE": 8538,
      "hub": 8539,
      "hits": 8540,
      "Ġcached": 8541,
      "Ġcreating": 8542,
      "addElement": 8543,
      "'@'": 8544,
      "Exclude": 8545,
      "nodeType": 8546,
      "ĊĠĠĠĠĠĠĠĠĠĠĠĠĠĠĠĠĠĠĠĠ": 8547,
      "'['": 8548,
      "Ġ%(": 8549,
      "79": 8550,
      "ç±": 8551,
      "peers": 8552,
      "çĲĨ": 8553,
      "pus": 8554,
      "Ġlo": 8555,
      "possibly": 8556,
      "rho": 8557,
      "SdkInternal": 8558,
      "fieldType": 8559,
      "Ġetc": 8560,
      "capability": 8561,
      "Ġident": 8562,
      "optionally": 8563,
      "Initializes": 8564,
      "Continue": 8565,
      "ConfigurationException": 8566,
      "ĠDefault": 8567,
      "Ġtimes": 8568,
      "tcp": 8569,
      "atives": 8570,
      "fopen": 8571,
      "ann": 8572,
      "Ġarrays": 8573,
      "Bindings": 8574,
      "Broker": 8575,
      "Bottom": 8576,
      "MUL": 8577,
      "yml": 8578,
      "Ġcluster": 8579,
      "Ġ__": 8580,
      "Radius": 8581,
      "Ġbits": 8582,
      "Channels": 8583,
      "courseid": 8584,
      "ç±»": 8585,
      "getG": 8586,
      "$'": 8587,
      "ÑģÑĤ": 8588,
      "wildcard": 8589,
      "ĠData": 8590,
      "Ġstarted": 8591,
      "Ġparam": 8592,
      "ILED": 8593,
      "HasPrefix": 8594,
      "semant": 8595,
      "ders": 8596,
      "fk": 8597,
      "disconnect": 8598,
      "Lazy": 8599,
      "_\"": 8600,
      "phere": 8601,
      "plane": 8602,
      "Expand": 8603,
      "ĠBY": 8604,
      "Ġunit": 8605,
      "Ġ($": 8606,
      "heap": 8607,
      "Maint": 8608,
      "fficient": 8609,
      "Listen": 8610,
      "SdkInternalList": 8611,
      "exponent": 8612,
      "andatory": 8613,
      "Removed": 8614,
      "andas": 8615,
      "cumul": 8616,
      "isfi": 8617,
      "Kube": 8618,
      "Ranges": 8619,
      "Ġdir": 8620,
      "Question": 8621,
      "HAS": 8622,
      "Ġjoin": 8623,
      "findOne": 8624,
      "childNode": 8625,
      "registers": 8626,
      "Caller": 8627,
      "xmlns": 8628,
      "Scanner": 8629,
      "kt": 8630,
      "addError": 8631,
      "ĠCalcul": 8632,
      "Updat": 8633,
      "Ġcoordin": 8634,
      "Resolution": 8635,
      "ai": 8636,
      "Train": 8637,
      "getMin": 8638,
      "Ġ'{": 8639,
      "aspect": 8640,
      "createFrom": 8641,
      "Ġrecords": 8642,
      "neighbor": 8643,
      "74": 8644,
      "zA": 8645,
      "provision": 8646,
      "EXTEN": 8647,
      "modifier": 8648,
      "stud": 8649,
      "elm": 8650,
      "Offer": 8651,
      "SIGN": 8652,
      "Mgr": 8653,
      "horizontal": 8654,
      "smo": 8655,
      "ync": 8656,
      "energy": 8657,
      "ĠHTML": 8658,
      "separated": 8659,
      "Ġcalls": 8660,
      "Conflict": 8661,
      "Phase": 8662,
      "(),": 8663,
      "resulting": 8664,
      "percentage": 8665,
      "declar": 8666,
      "ĠAll": 8667,
      "dv": 8668,
      "FETCH": 8669,
      "DataSet": 8670,
      "Ġstarting": 8671,
      "76": 8672,
      "arange": 8673,
      "resourceName": 8674,
      "Numbers": 8675,
      "attributeName": 8676,
      "ĠOR": 8677,
      "lio": 8678,
      "Ġdisabled": 8679,
      "topology": 8680,
      "traverse": 8681,
      "THE": 8682,
      "å¼ı": 8683,
      "traceback": 8684,
      "Parsed": 8685,
      "pixels": 8686,
      "Keep": 8687,
      "fold": 8688,
      "Discount": 8689,
      "FFER": 8690,
      "tot": 8691,
      "INSERT": 8692,
      "IV": 8693,
      "uted": 8694,
      "projectId": 8695,
      "aria": 8696,
      "coin": 8697,
      "stricted": 8698,
      "alker": 8699,
      "needle": 8700,
      "still": 8701,
      "shipping": 8702,
      "Ġmean": 8703,
      "affected": 8704,
      "ĠSend": 8705,
      "ffff": 8706,
      "getAbsolutePath": 8707,
      "Ġsimple": 8708,
      "Creator": 8709,
      "lastIndexOf": 8710,
      "IMP": 8711,
      "SetName": 8712,
      "LINK": 8713,
      "æĶ": 8714,
      "previously": 8715,
      "Ñĩ": 8716,
      "agma": 8717,
      "invoked": 8718,
      "CharSequence": 8719,
      "Tokenizer": 8720,
      "offer": 8721,
      "IAM": 8722,
      "æģ": 8723,
      "manage": 8724,
      "facet": 8725,
      "GENER": 8726,
      "CKE": 8727,
      "keyid": 8728,
      "Ġresolve": 8729,
      "æŁ¥": 8730,
      "}{": 8731,
      "Ġchecking": 8732,
      "Completion": 8733,
      "wi": 8734,
      "MATCH": 8735,
      "è¿ĶåĽŀ": 8736,
      "Exchange": 8737,
      "MAIN": 8738,
      "omit": 8739,
      "vidence": 8740,
      "covered": 8741,
      "Ġeverything": 8742,
      "$/'": 8743,
      "POS": 8744,
      "Than": 8745,
      "ĉĉĉ": 8746,
      "REE": 8747,
      "Creating": 8748,
      "dh": 8749,
      "transactions": 8750,
      "Determines": 8751,
      "FAIL": 8752,
      "||=": 8753,
      "zones": 8754,
      "RESULT": 8755,
      "Vault": 8756,
      "Complex": 8757,
      "UNKNOWN": 8758,
      "allErrs": 8759,
      "nextToken": 8760,
      "/=": 8761,
      "getIdentifier": 8762,
      "overr": 8763,
      "extent": 8764,
      "ipy": 8765,
      "OPTIONS": 8766,
      "Ġlonger": 8767,
      "æĸ¹": 8768,
      "Ġagainst": 8769,
      "Weekday": 8770,
      "aining": 8771,
      "Ġoverride": 8772,
      "fx": 8773,
      "ä¹": 8774,
      "SIB": 8775,
      "vv": 8776,
      "Animation": 8777,
      "Ġexact": 8778,
      "kube": 8779,
      "lengths": 8780,
      "variants": 8781,
      "ftp": 8782,
      "tuples": 8783,
      "bias": 8784,
      "noise": 8785,
      "CLOSE": 8786,
      "Ġrandom": 8787,
      "secondary": 8788,
      "pdo": 8789,
      "Ġadditional": 8790,
      "ABLED": 8791,
      "Dum": 8792,
      "whitespace": 8793,
      "Alloc": 8794,
      "cular": 8795,
      "Detect": 8796,
      "51": 8797,
      "persistence": 8798,
      "RecognitionException": 8799,
      "ja": 8800,
      "-----": 8801,
      "Ġdomain": 8802,
      "edir": 8803,
      "bosity": 8804,
      "animation": 8805,
      "ONT": 8806,
      "identifiers": 8807,
      "Ð¾Ð²": 8808,
      "mpl": 8809,
      "PS": 8810,
      "Ġdouble": 8811,
      "HttpServletRequest": 8812,
      "singular": 8813,
      "ipant": 8814,
      "Detection": 8815,
      "dry": 8816,
      "getLocale": 8817,
      "pause": 8818,
      "Respon": 8819,
      "#'": 8820,
      "Quantity": 8821,
      "cule": 8822,
      "isk": 8823,
      "Preview": 8824,
      "RM": 8825,
      "ãģĻ": 8826,
      "attribs": 8827,
      "Ġside": 8828,
      "Ġdeprecated": 8829,
      "Operand": 8830,
      "ãĥ¼": 8831,
      "getEvent": 8832,
      "toUpperCase": 8833,
      "accessor": 8834,
      "Quota": 8835,
      "queues": 8836,
      "Ġrelease": 8837,
      "LET": 8838,
      "ĊĠĠĠĠĠ": 8839,
      "getOptions": 8840,
      "moduleName": 8841,
      "having": 8842,
      "Ġdrop": 8843,
      "Ġfuture": 8844,
      "Assets": 8845,
      "EXIST": 8846,
      "Fprintf": 8847,
      "Ġsocket": 8848,
      "former": 8849,
      "Dimensions": 8850,
      "Attempts": 8851,
      "Faces": 8852,
      "Ġ]": 8853,
      "Touch": 8854,
      "DEN": 8855,
      "Ġtrans": 8856,
      "getUri": 8857,
      "ĠIgnore": 8858,
      "widgets": 8859,
      "Ġlayer": 8860,
      "iving": 8861,
      "RUN": 8862,
      "Shift": 8863,
      "cleaned": 8864,
      "BB": 8865,
      "coeff": 8866,
      "onto": 8867,
      "closest": 8868,
      "Calculates": 8869,
      "Observer": 8870,
      "fund": 8871,
      "ĠĠĠĠĠĠĠĠĠĠĠĠĠĠĠĠĠĠĠĠĠĠĠĠĠĠĠĠĠĠĠĠ": 8872,
      "MIL": 8873,
      "Ring": 8874,
      "ior": 8875,
      "uploaded": 8876,
      "FER": 8877,
      "crc": 8878,
      "itable": 8879,
      "getLine": 8880,
      "Callbacks": 8881,
      "armacy": 8882,
      "Mi": 8883,
      "packageName": 8884,
      "Ports": 8885,
      "determin": 8886,
      "isdir": 8887,
      "assum": 8888,
      "Signed": 8889,
      "Ġinstalled": 8890,
      "itself": 8891,
      "æģ¯": 8892,
      "DU": 8893,
      "navigation": 8894,
      "ĠUser": 8895,
      "tk": 8896,
      "ç¬¦": 8897,
      "mongo": 8898,
      "MLE": 8899,
      "Refs": 8900,
      "physical": 8901,
      "Ġbetter": 8902,
      "sensor": 8903,
      "PTION": 8904,
      "Ġchar": 8905,
      "Containers": 8906,
      "000000": 8907,
      "AMP": 8908,
      "Az": 8909,
      "Two": 8910,
      "checking": 8911,
      "Registers": 8912,
      "CPDefinition": 8913,
      "tabs": 8914,
      "XA": 8915,
      "Ġpool": 8916,
      "AccessException": 8917,
      "Parameterized": 8918,
      "Ġchecks": 8919,
      "getApplication": 8920,
      "approx": 8921,
      "xi": 8922,
      "estimate": 8923,
      "asynchronous": 8924,
      "products": 8925,
      "300": 8926,
      "Ld": 8927,
      "Pipe": 8928,
      "earch": 8929,
      "ValueException": 8930,
      "------------------------------------------------": 8931,
      "Ġcell": 8932,
      "Inet": 8933,
      "ĠInternalXbase": 8934,
      "whose": 8935,
      "Translate": 8936,
      "derived": 8937,
      "Increment": 8938,
      "boxes": 8939,
      "SUCCESS": 8940,
      "ni": 8941,
      "unct": 8942,
      "512": 8943,
      "leave": 8944,
      "creator": 8945,
      "Low": 8946,
      "memo": 8947,
      "arbit": 8948,
      "Deferred": 8949,
      "Ġcover": 8950,
      "Ġreading": 8951,
      "Ġretry": 8952,
      "OrderedDict": 8953,
      "Ġfollow": 8954,
      "getList": 8955,
      "ĠPython": 8956,
      "Translator": 8957,
      "æ³ķ": 8958,
      "pivot": 8959,
      "ĠURI": 8960,
      "transformed": 8961,
      "examples": 8962,
      "trees": 8963,
      "getH": 8964,
      "JsonObject": 8965,
      "restart": 8966,
      "fers": 8967,
      "setTimeout": 8968,
      "Categories": 8969,
      "hp": 8970,
      "ErrCodeInvalid": 8971,
      "Ticket": 8972,
      "æŃ": 8973,
      "Ġassociated": 8974,
      "reet": 8975,
      "ember": 8976,
      "yang": 8977,
      "RESS": 8978,
      "population": 8979,
      "compound": 8980,
      "Ġstandard": 8981,
      "Ġimplementation": 8982,
      "invert": 8983,
      "elt": 8984,
      "coverage": 8985,
      "Times": 8986,
      "ĠNe": 8987,
      "Ġnil": 8988,
      "getStatusCode": 8989,
      "jwt": 8990,
      "qr": 8991,
      "TYPES": 8992,
      "Ġtrying": 8993,
      "SUP": 8994,
      "INPUT": 8995,
      "Requested": 8996,
      "imports": 8997,
      "Plain": 8998,
      "ĊĉĠĠĠĠ": 8999,
      "SN": 9000,
      "wf": 9001,
      "Ġnamed": 9002,
      "defs": 9003,
      "questions": 9004,
      "COD": 9005,
      "onal": 9006,
      "refer": 9007,
      "Cells": 9008,
      "Plot": 9009,
      "reversed": 9010,
      "works": 9011,
      "dashboard": 9012,
      "ASCII": 9013,
      "getI": 9014,
      "getSize": 9015,
      "getDocument": 9016,
      "ONLY": 9017,
      "Atomic": 9018,
      "uss": 9019,
      "Providers": 9020,
      "cmap": 9021,
      "instrument": 9022,
      "getBy": 9023,
      "Ġrole": 9024,
      "review": 9025,
      "getAnnotation": 9026,
      "Ġblocks": 9027,
      "Dirs": 9028,
      "OPTIONAL": 9029,
      "Sem": 9030,
      "getLength": 9031,
      "composite": 9032,
      "grouped": 9033,
      "ĠPre": 9034,
      "obile": 9035,
      "sponse": 9036,
      "rozen": 9037,
      "Alt": 9038,
      "Guide": 9039,
      "queryParams": 9040,
      "Ġ[%": 9041,
      "mim": 9042,
      "stroke": 9043,
      "REC": 9044,
      "neighbors": 9045,
      "occurs": 9046,
      "Marshaler": 9047,
      "placement": 9048,
      "chosen": 9049,
      "STACK": 9050,
      "+\"": 9051,
      "Ġchunk": 9052,
      "Actual": 9053,
      "bench": 9054,
      "Scalar": 9055,
      "ORE": 9056,
      "identified": 9057,
      "Declar": 9058,
      "åħ¥": 9059,
      "updateres": 9060,
      "EAR": 9061,
      "greater": 9062,
      "Ġsl": 9063,
      "LDAP": 9064,
      "kub": 9065,
      "iling": 9066,
      "WHERE": 9067,
      "appId": 9068,
      "EK": 9069,
      "Decorator": 9070,
      "MULTI": 9071,
      "unshift": 9072,
      "trailing": 9073,
      "cision": 9074,
      "breviated": 9075,
      "Margin": 9076,
      "tol": 9077,
      "IVE": 9078,
      "SAX": 9079,
      "ordering": 9080,
      "CPU": 9081,
      "COMM": 9082,
      "uck": 9083,
      "paint": 9084,
      "Ġcatch": 9085,
      "locity": 9086,
      "stackPtr": 9087,
      "pieces": 9088,
      "\"=\"": 9089,
      "water": 9090,
      "liance": 9091,
      "isString": 9092,
      "Temporary": 9093,
      "Mutex": 9094,
      "Ġprimary": 9095,
      "dicator": 9096,
      "Registered": 9097,
      "COMMENT": 9098,
      "pmag": 9099,
      "ĠList": 9100,
      "getEnd": 9101,
      "Iteration": 9102,
      "åıĤ": 9103,
      "getOr": 9104,
      "dataSource": 9105,
      "deletes": 9106,
      "replaced": 9107,
      "apache": 9108,
      "UserId": 9109,
      "analyzer": 9110,
      "copying": 9111,
      "Ġproxy": 9112,
      "Ġretrieve": 9113,
      "tokenizer": 9114,
      "Fleet": 9115,
      "ftime": 9116,
      "vectors": 9117,
      "Ġ>=": 9118,
      "Texture": 9119,
      "orer": 9120,
      "WRITE": 9121,
      "RC": 9122,
      "åĪĨ": 9123,
      "^=": 9124,
      "getParameters": 9125,
      "Discovery": 9126,
      "Multipart": 9127,
      ")?": 9128,
      "rootNode": 9129,
      "Ġnegative": 9130,
      "ĠValidate": 9131,
      "Ġsetup": 9132,
      "Facet": 9133,
      "ç¼": 9134,
      "iet": 9135,
      "================================================================": 9136,
      "Play": 9137,
      "Ġedge": 9138,
      ">%": 9139,
      "ager": 9140,
      "Ġadding": 9141,
      "VALUES": 9142,
      "scheduled": 9143,
      "Ns": 9144,
      "Computes": 9145,
      "localVar": 9146,
      "propName": 9147,
      "shadow": 9148,
      "Ġknown": 9149,
      "inheritdoc": 9150,
      "today": 9151,
      "oftw": 9152,
      "åĲ¦": 9153,
      "mf": 9154,
      "}_": 9155,
      "smarty": 9156,
      "carry": 9157,
      "'&'": 9158,
      "inputStream": 9159,
      "indicator": 9160,
      "vr": 9161,
      "Pairs": 9162,
      "ä¸Ģä¸ª": 9163,
      "sz": 9164,
      "celer": 9165,
      "certain": 9166,
      "wers": 9167,
      "expiry": 9168,
      "Blue": 9169,
      "assess": 9170,
      "privile": 9171,
      "Cr": 9172,
      "Exceeded": 9173,
      "comma": 9174,
      "suc": 9175,
      "Ċĉĉĉĉĉ": 9176,
      "optimize": 9177,
      "Duplicate": 9178,
      "æĮĩ": 9179,
      "oftware": 9180,
      "ENTER": 9181,
      "ervice": 9182,
      "contrib": 9183,
      "bt": 9184,
      "LAST": 9185,
      "License": 9186,
      "isLog": 9187,
      "imported": 9188,
      "'''": 9189,
      "Closer": 9190,
      "NullPointer": 9191,
      "Finished": 9192,
      "objs": 9193,
      "\"]\"": 9194,
      "setError": 9195,
      "Provide": 9196,
      "ĠSave": 9197,
      "Linear": 9198,
      "URLs": 9199,
      "unction": 9200,
      "olution": 9201,
      "Ġprobably": 9202,
      "Gra": 9203,
      "Rollback": 9204,
      "Ġbranch": 9205,
      "æĢ": 9206,
      "delim": 9207,
      "above": 9208,
      "setId": 9209,
      "topics": 9210,
      "ĠCalculate": 9211,
      "radio": 9212,
      "################################": 9213,
      "getFull": 9214,
      "ReadOnly": 9215,
      "terminate": 9216,
      "suggest": 9217,
      "ĠĠĠĠĠĠĠĠĠ": 9218,
      "FAILED": 9219,
      "otion": 9220,
      "processException": 9221,
      "Ġgreater": 9222,
      "leading": 9223,
      "pref": 9224,
      "IndexError": 9225,
      "Supplier": 9226,
      "Ġgoing": 9227,
      "omatic": 9228,
      "arb": 9229,
      "appName": 9230,
      "BIN": 9231,
      "Rend": 9232,
      "getSub": 9233,
      "pem": 9234,
      "Expired": 9235,
      "OSError": 9236,
      "rupt": 9237,
      "unders": 9238,
      "Maintenance": 9239,
      "Capture": 9240,
      "invok": 9241,
      "itness": 9242,
      "rier": 9243,
      "Ġissue": 9244,
      "reach": 9245,
      "Sends": 9246,
      "Material": 9247,
      "Takes": 9248,
      "sends": 9249,
      "organ": 9250,
      "WH": 9251,
      "FieldType": 9252,
      "Ġcontents": 9253,
      "Relations": 9254,
      "lifetime": 9255,
      "Aggregation": 9256,
      "Ġfeature": 9257,
      "ilo": 9258,
      "MediaType": 9259,
      "NullPointerException": 9260,
      "below": 9261,
      "Ġwon": 9262,
      "retrieved": 9263,
      "65535": 9264,
      "Ġverify": 9265,
      "TEMPLATE": 9266,
      ",\"": 9267,
      "DA": 9268,
      "Histogram": 9269,
      "));": 9270,
      "newline": 9271,
      "folio": 9272,
      "()\"": 9273,
      "GEX": 9274,
      "isDirectory": 9275,
      "getChildren": 9276,
      "Dirty": 9277,
      "getAttributes": 9278,
      "distrib": 9279,
      "NA": 9280,
      "Ġresources": 9281,
      "Seed": 9282,
      "Ġproblem": 9283,
      "sip": 9284,
      "represents": 9285,
      "Slash": 9286,
      "Terms": 9287,
      "åĪ°": 9288,
      "Ġremaining": 9289,
      "optionalArgs": 9290,
      "Ġconstructor": 9291,
      "intent": 9292,
      "RequestInterface": 9293,
      "ju": 9294,
      "phan": 9295,
      "nitude": 9296,
      "Prepared": 9297,
      "FIC": 9298,
      "za": 9299,
      "Accessible": 9300,
      "OpenCms": 9301,
      "sessionId": 9302,
      "BL": 9303,
      "uniq": 9304,
      "ASC": 9305,
      "IDE": 9306,
      "Urls": 9307,
      "branches": 9308,
      "RAW": 9309,
      "Unauthorized": 9310,
      "MASK": 9311,
      "calculation": 9312,
      "recursively": 9313,
      "åīį": 9314,
      "QName": 9315,
      "dummy": 9316,
      "Ġboolean": 9317,
      "FLO": 9318,
      "controllers": 9319,
      "requireNonNull": 9320,
      "åĪĻ": 9321,
      "splits": 9322,
      "signer": 9323,
      "waitFor": 9324,
      "Ġbrowser": 9325,
      "Producer": 9326,
      "Ġdefine": 9327,
      "CHANGE": 9328,
      "MONTH": 9329,
      "tolerance": 9330,
      "hot": 9331,
      "throwable": 9332,
      "Ġdetails": 9333,
      "Packages": 9334,
      "Pure": 9335,
      "ixin": 9336,
      "QUO": 9337,
      "EQU": 9338,
      "LONG": 9339,
      "imap": 9340,
      "Aware": 9341,
      "ration": 9342,
      "orical": 9343,
      "bitmap": 9344,
      "INTERN": 9345,
      "éĶ": 9346,
      "aking": 9347,
      "presentation": 9348,
      "aravel": 9349,
      "INTE": 9350,
      "lation": 9351,
      "Ġconsole": 9352,
      "getJ": 9353,
      "aintext": 9354,
      "ĠName": 9355,
      "timedelta": 9356,
      "tmpl": 9357,
      "Evaluation": 9358,
      "bold": 9359,
      "SORT": 9360,
      "BUFFER": 9361,
      "jb": 9362,
      "REGEX": 9363,
      "uffle": 9364,
      "bum": 9365,
      "nodeList": 9366,
      "InternalServerError": 9367,
      "larg": 9368,
      "due": 9369,
      "Ġreally": 9370,
      "ĠFIXME": 9371,
      "Inspect": 9372,
      "IfNot": 9373,
      "Player": 9374,
      "Inc": 9375,
      "Signing": 9376,
      "Helpers": 9377,
      "addrs": 9378,
      "DY": 9379,
      "perms": 9380,
      "VIEW": 9381,
      "Sibling": 9382,
      "_%": 9383,
      "profiles": 9384,
      "licable": 9385,
      "circle": 9386,
      "CONNEC": 9387,
      "Checked": 9388,
      "TreeNode": 9389,
      "ARCH": 9390,
      "ablish": 9391,
      "ĠIs": 9392,
      "contig": 9393,
      "Ġweight": 9394,
      "stock": 9395,
      "reports": 9396,
      "[\"": 9397,
      "tid": 9398,
      "getComponent": 9399,
      "Surface": 9400,
      "ĠType": 9401,
      "alter": 9402,
      "parable": 9403,
      "objWriter": 9404,
      "Alive": 9405,
      "whole": 9406,
      "replaceAll": 9407,
[...]
